'<pad>_'
'<EOS>_'
', _'
'the_'
'of_'
'and_'
'. _'
'to_'
'a_'
'in_'
'._'
'that_'
'I_'
'was_'
'it_'
'he_'
'is_'
'his_'
''_'
'with_'
'as_'
'for_'
',_'
'-_'
's_'
'; _'
'had_'
'be_'
'not_'
'on_'
'The_'
'by_'
'at_'
'you_'
'"_'
'which_'
'her_'
'have_'
'from_'
'_'
'but_'
'this_'
'him_'
'or_'
'were_'
'all_'
'they_'
'are_'
'she_'
'--_'
'one_'
'their_'
'an_'
'my_'
'so_'
'me_'
'we_'
'been_'
'."_'
'them_'
'who_'
'said_'
'would_'
'," _'
'no_'
'will_'
'He_'
'.  _'
'there_'
'when_'
'It_'
'more_'
'out_'
't_'
'if_'
'up_'
'has_'
'into_'
' \u_'
'man_'
'some_'
'very_'
'what_'
'time_'
'its_'
'could_'
'And_'
'than_'
'But_'
'do_'
'upon_'
'other_'
'our_'
'any_'
'only_'
'your_'
'A_'
'about_'
'us_'
'now_'
'then_'
'little_'
'can_'
'two_'
'like_'
'made_'
': _'
'\u_'
'In_'
'! _'
'may_'
'should_'
'great_'
';_'
'these_'
'did_'
'such_'
'before_'
'’_'
'over_'
'. "_'
'first_'
'must_'
'see_'
'\u _'
'much_'
'day_'
'after_'
'[_'
'good_'
', "_'
'Mr_'
'men_'
'down_'
'well_'
' "_'
'know_'
'most_'
'? _'
'old_'
'where_'
'd_'
'those_'
'e_'
'being_'
'own_'
' (_'
'She_'
'way_'
'never_'
'long_'
'came_'
'life_'
'himself_'
'many_'
'' _'
'come_'
'This_'
'You_'
'through_'
'go_'
'same_'
'They_'
'\u, _'
'make_'
'shall_'
'might_'
'?"_'
'without_'
'too_'
'say_'
'every_'
'here_'
'even_'
'back_'
'am_'
'again_'
'We_'
'There_'
':_'
'place_'
'found_'
'how_'
'under_'
'last_'
'think_'
'hand_'
'while_'
'people_'
'still_'
'away_'
'went_'
'also_'
'thought_'
'take_'
'“_'
'] _'
'work_'
'three_'
'years_'
'though_'
'house_'
'just_'
'eyes_'
'If_'
'off_'
'What_'
'yet_'
'another_'
'night_'
'against_'
'young_'
'left_'
'part_'
'o_'
'once_'
'head_'
'1_'
'right_'
'ever_'
'God_'
'nothing_'
'de_'
'When_'
'n_'
'each_'
'between_'
'That_'
'few_'
'face_'
'give_'
'Then_'
'No_'
'far_'
'., _'
'll_'
'get_'
'world_'
'called_'
'took_'
'His_'
'As_'
'!" _'
'y_'
'put_'
'To_'
'saw_'
'always_'
'side_'
'water_'
'things_'
' '_'
'new_'
') _'
'whole_'
'?" _'
'love_'
'm_'
'name_'
'room_'
'THE_'
'don_'
'Mrs_'
'heart_'
'father_'
'mind_'
'country_'
'For_'
'both_'
'i_'
'having_'
'At_'
'half_'
'seen_'
'2_'
'find_'
'S_'
'whom_'
'tell_'
'because_'
'." _'
'done_'
'thing_'
'home_'
'days_'
'seemed_'
'looked_'
'told_'
'let_'
'however_'
'ing_'
'look_'
'heard_'
'better_'
'among_'
'course_'
'going_'
'asked_'
'soon_'
'moment_'
'woman_'
'small_'
'end_'
'.\u _'
',--_'
'" _'
'got_'
']_'
'enough_'
'almost_'
'knew_'
'taken_'
'?_'
'mother_'
'hands_'
'!_'
'light_'
'large_'
'quite_'
'less_'
'given_'
'On_'
'words_'
'!"_'
'until_'
'something_'
'present_'
'set_'
'gave_'
'best_'
'brought_'
'whose_'
'Lord_'
', \u_'
'others_'
'ed_'
'themselves_'
'es_'
'death_'
'morning_'
'door_'
'white_'
'power_'
'does_'
'full_'
'p_'
'So_'
'r_'
'cannot_'
'year_'
'nor_'
'known_'
'four_'
'feet_'
',” _'
'.”_'
'word_'
'near_'
'rather_'
'turned_'
'Oh_'
'since_'
'order_'
'used_'
'case_'
'poor_'
'matter_'
'next_'
'3_'
'together_'
'round_'
'kind_'
'above_'
'high_'
'began_'
'use_'
'Sir_'
'.\u_'
'felt_'
'till_'
'My_'
'son_'
'thus_'
'certain_'
'want_'
'er_'
'.--_'
'often_'
'true_'
'fact_'
'LETTER_'
'says_'
'myself_'
'friend_'
'Now_'
'form_'
're_'
'wife_'
'stood_'
'voice_'
'sent_'
'GREEK_'
'passed_'
'Miss_'
'children_'
'John_'
'), _'
'hundred_'
'fire_'
'.]_'
'means_'
'King_'
'SMALL_'
'five_'
'money_'
'body_'
've_'
'l_'
',' _'
'during_'
'Yes_'
'land_'
'girl_'
'point_'
'How_'
'air_'
'along_'
'times_'
'herself_'
'within_'
'By_'
'perhaps_'
'general_'
'English_'
'—_'
'believe_'
'All_'
'M_'
'anything_'
'One_'
'open_'
'4_'
'least_'
'itself_'
'nature_'
'Well_'
'child_'
'keep_'
'OF_'
'several_'
'alone_'
'With_'
'indeed_'
'already_'
'war_'
'England_'
'dear_'
'St_'
'O_'
'boy_'
'number_'
'either_'
'ground_'
'therefore_'
'held_'
'city_'
'looking_'
'gone_'
'king_'
'women_'
'Of_'
'second_'
'. \u_'
'rest_'
'thou_'
'town_'
'state_'
'hour_'
'cried_'
'(_'
'New_'
'Why_'
'leave_'
'sea_'
'manner_'
'sure_'
'able_'
'letter_'
'became_'
'hope_'
'friends_'
'~}{~_'
'lay_'
'.'_'
'short_'
'5_'
'become_'
'different_'
'hear_'
'making_'
'read_'
'whether_'
'replied_'
'family_'
'possible_'
'law_'
'question_'
'c_'
'line_'
'reason_'
'French_'
'=_'
' “_'
'dead_'
'call_'
'lost_'
'speak_'
'answered_'
'behind_'
'why_'
'received_'
'following_'
'subject_'
'towards_'
'black_'
'thy_'
'twenty_'
'business_'
': "_'
'kept_'
'earth_'
'6_'
'These_'
'After_'
'coming_'
'around_'
'care_'
'help_'
'strong_'
'return_'
'character_'
'C_'
'lady_'
'book_'
'E_'
'Illustration_'
'public_'
'seems_'
'hard_'
'beautiful_'
'thousand_'
'D_'
'person_'
'close_'
'truth_'
'human_'
'really_'
'river_'
'arms_'
'fell_'
'early_'
'From_'
'ten_'
'London_'
'account_'
'wish_'
'dark_'
'necessary_'
'returned_'
'age_'
'doubt_'
'fine_'
', '_'
'common_'
'mean_'
'brother_'
'followed_'
'evening_'
'six_'
'sat_'
'story_'
'sir_'
'feel_'
'cause_'
'show_'
'red_'
'soul_'
'carried_'
'turn_'
'position_'
'table_'
'; "_'
'miles_'
'ready_'
'thee_'
'sometimes_'
'met_'
'interest_'
'CHAPTER_'
'spirit_'
'live_'
'horse_'
'later_'
'party_'
'Here_'
'bed_'
'sight_'
'idea_'
'church_'
'nearly_'
'free_'
'sense_'
'cut_'
'road_'
'force_'
'bring_'
'across_'
'ye_'
'continued_'
'view_'
'deep_'
'answer_'
'fear_'
'appeared_'
'reached_'
'sun_'
'blood_'
'need_'
'hold_'
'eye_'
'further_'
'Her_'
'hours_'
'longer_'
'.  "_'
'past_'
'latter_'
'sort_'
'art_'
'8_'
'taking_'
'purpose_'
'General_'
'ask_'
'Not_'
'placed_'
'understand_'
'cold_'
'late_'
'else_'
'seem_'
'led_'
'history_'
'\u. _'
'added_'
'ought_'
'fellow_'
'.[_'
'B_'
'low_'
'7_'
'clear_'
'husband_'
'length_'
'effect_'
'See_'
'beyond_'
'France_'
'master_'
'daughter_'
'everything_'
'won_'
'Do_'
'\u._'
'Let_'
'rose_'
'feeling_'
'army_'
'probably_'
'died_'
'States_'
'strange_'
'spoke_'
'Dr_'
'although_'
'knowledge_'
'forward_'
'natural_'
'stand_'
'front_'
'except_'
'forth_'
'gold_'
'suddenly_'
'act_'
'happy_'
', “_'
'real_'
'meet_'
'foot_'
'talk_'
'000_'
'entered_'
'living_'
'change_'
'service_'
'pass_'
'fall_'
'distance_'
'laid_'
'written_'
'en_'
'  _'
'trees_'
'bad_'
'run_'
'enemy_'
'pretty_'
'self_'
'saying_'
'sound_'
'parts_'
'fair_'
'suppose_'
'comes_'
'An_'
'W_'
'10_'
'. “_'
'greater_'
'H_'
'Don_'
'attention_'
'school_'
'American_'
'none_'
'Some_'
'ly_'
'Captain_'
'hair_'
'et_'
'chief_'
'boys_'
'especially_'
'le_'
'paper_'
'R_'
'la_'
'opened_'
'neither_'
'company_'
'Lady_'
'doing_'
'ago_'
'various_'
'9_'
'object_'
'important_'
'ship_'
'certainly_'
'play_'
'L_'
'stone_'
'ii_'
'toward_'
'Church_'
'peace_'
'AND_'
'tree_'
'wood_'
'Is_'
'period_'
'wild_'
'wind_'
'field_'
'pleasure_'
'remember_'
'lived_'
'persons_'
'generally_'
'pay_'
'--"_'
'according_'
'h_'
'arm_'
'government_'
'duty_'
'remained_'
'opinion_'
'ill_'
'mine_'
'big_'
'action_'
'bear_'
'gentleman_'
'makes_'
'George_'
'window_'
'places_'
'British_'
'boat_'
'blue_'
'tried_'
'N_'
'office_'
'strength_'
'minutes_'
'ran_'
'appearance_'
'heavy_'
'months_'
'horses_'
'note_'
'green_'
'immediately_'
'didn_'
'influence_'
'below_'
'third_'
'afterwards_'
'books_'
'single_'
'century_'
'former_'
'wanted_'
'letters_'
'J_'
'desire_'
'beauty_'
'formed_'
'York_'
'condition_'
'sister_'
'glad_'
'ng_'
'Christ_'
'William_'
'May_'
'mouth_'
'trouble_'
'’ _'
'standing_'
'exclaimed_'
'hardly_'
'battle_'
'covered_'
'appear_'
'/_'
'ancient_'
'broken_'
'save_'
'born_'
'rich_'
'Who_'
'filled_'
'. '_'
'presence_'
'Paris_'
'court_'
'lines_'
'top_'
'faith_'
'system_'
')_'
'yourself_'
'die_'
'Mary_'
'Thus_'
'deal_'
'sweet_'
'future_'
'lips_'
'impossible_'
' <_'
'piece_'
'works_'
'eight_'
'II_'
'chance_'
'seven_'
'instead_'
'houses_'
'beginning_'
'. (_'
'follow_'
'sleep_'
'send_'
'Henry_'
'result_'
'arrived_'
'happened_'
'occasion_'
'giving_'
'silence_'
'food_'
'somewhat_'
'entirely_'
'try_'
'Christian_'
'wrote_'
'clock_'
'direction_'
'easy_'
'raised_'
'smile_'
'um_'
'Where_'
'week_'
'T_'
'Footnote_'
'simple_'
'Yet_'
'usual_'
'State_'
'struck_'
'street_'
'!  _'
'figure_'
'village_'
'th_'
'visit_'
'drew_'
'cases_'
'carry_'
'worth_'
'easily_'
'particular_'
'Charles_'
'F_'
'wall_'
'merely_'
'considered_'
'thinking_'
'knows_'
'whatever_'
'ne_'
'House_'
'wide_'
'respect_'
'circumstances_'
'P_'
'?  _'
'tone_'
'Our_'
'bright_'
'German_'
'United_'
'command_'
'seeing_'
'danger_'
'paid_'
'Indian_'
' _'
'dinner_'
'walked_'
'regard_'
'fresh_'
'slowly_'
'|_'
'12_'
'learned_'
'married_'
'thoughts_'
'loved_'
'mere_'
'officers_'
'caught_'
'plain_'
'society_'
'class_'
'north_'
'remain_'
'Ah_'
'started_'
'scarcely_'
'perfect_'
'observed_'
'language_'
'expression_'
'built_'
'afraid_'
'glass_'
'experience_'
'stay_'
'allowed_'
'greatest_'
'girls_'
'value_'
'wrong_'
'st_'
'moved_'
'g_'
'evil_'
'thirty_'
'getting_'
'secret_'
'camp_'
'leaving_'
'v_'
'charge_'
'Queen_'
'walk_'
'rs_'
'quiet_'
'proper_'
'wonder_'
'James_'
'expected_'
'Indians_'
'summer_'
'hot_'
'tears_'
'walls_'
'success_'
'scene_'
'0_'
'leaves_'
'showed_'
'per_'
'quickly_'
'forms_'
'Prince_'
'supposed_'
'joy_'
'drawn_'
'Great_'
'produced_'
'Tom_'
'flowers_'
')._'
'G_'
'Their_'
'youth_'
'noble_'
'chair_'
'write_'
'gives_'
'race_'
':--_'
'iron_'
'due_'
'shown_'
'stopped_'
'outside_'
'middle_'
'difficult_'
'grew_'
' [_'
'etc_'
'America_'
'changed_'
'fight_'
'killed_'
'laughed_'
'discovered_'
'soldiers_'
'lower_'
'existence_'
'board_'
'original_'
'troops_'
'*_'
'bound_'
'step_'
'picture_'
'unto_'
'spring_'
'mentioned_'
'property_'
'shot_'
'garden_'
'15_'
'Come_'
'lives_'
'south_'
'spot_'
'winter_'
'waiting_'
'marriage_'
'attempt_'
'hath_'
'music_'
'considerable_'
'While_'
'fifty_'
'). _'
'speaking_'
'Your_'
'appears_'
'Such_'
'authority_'
'heaven_'
'Jack_'
'reach_'
'Y_'
'modern_'
'study_'
',"_'
'unless_'
'determined_'
'afternoon_'
'religion_'
'goes_'
'cross_'
'sufficient_'
'sitting_'
'similar_'
'South_'
'20_'
'sudden_'
'11_'
'species_'
'surface_'
'journey_'
'floor_'
'equal_'
'k_'
'Rome_'
'declared_'
'meant_'
'cry_'
'names_'
'lie_'
'fast_'
'laws_'
'dress_'
'usually_'
'likely_'
'passing_'
'Government_'
'author_'
'watch_'
'private_'
'passage_'
'religious_'
'beside_'
'prepared_'
'interesting_'
'Europe_'
'meeting_'
'receive_'
'honour_'
'escape_'
'degree_'
'lead_'
'difficulty_'
'Duke_'
'silent_'
'al_'
'dog_'
'cast_'
'broke_'
'wished_'
'possession_'
'news_'
'conversation_'
'complete_'
'building_'
'bit_'
'wait_'
'plan_'
'believed_'
'morrow_'
'offered_'
'soft_'
'shore_'
'hill_'
'fixed_'
'sides_'
'.' _'
'*       *       *       *       *_'
'evidence_'
'doctor_'
'” _'
'ladies_'
'Roman_'
'higher_'
'officer_'
'sky_'
'simply_'
'obtained_'
'special_'
'personal_'
'Good_'
'example_'
'beneath_'
'notice_'
'pleasant_'
'required_'
'straight_'
'Father_'
'orders_'
'.” _'
'rise_'
'proved_'
'perfectly_'
'closed_'
'mountain_'
'attack_'
'.)_'
'learn_'
'silver_'
'reply_'
'please_'
'corner_'
'turning_'
'animal_'
'ordinary_'
'political_'
'eat_'
'Even_'
'grave_'
'Greek_'
'captain_'
'matters_'
'North_'
'minute_'
'fish_'
'running_'
'writing_'
'island_'
'rule_'
'nation_'
'terrible_'
'steps_'
'Colonel_'
'em_'
'native_'
'twelve_'
' (\u_'
'ones_'
'opportunity_'
'caused_'
'members_'
'ers_'
'pale_'
'opposite_'
'ourselves_'
'broad_'
'instance_'
'portion_'
'loss_'
'understood_'
'heads_'
'sit_'
'train_'
'fully_'
'warm_'
'ordered_'
'west_'
'space_'
'bank_'
'game_'
'birds_'
'animals_'
'speech_'
'pain_'
'te_'
'lying_'
'drawing_'
'pieces_'
'u_'
'conduct_'
'described_'
'engaged_'
'safe_'
'dry_'
'month_'
'13_'
'trade_'
'importance_'
'justice_'
'pleased_'
'lord_'
'seat_'
'amount_'
'Two_'
'14_'
'happiness_'
'memory_'
'brown_'
'intended_'
'named_'
'surprise_'
'Perhaps_'
'?”_'
'break_'
'x_'
'spent_'
'snow_'
'ways_'
'16_'
'rock_'
'Thomas_'
'curious_'
'frequently_'
'points_'
'III_'
'forget_'
'moral_'
'IN_'
'. [_'
'forty_'
'Peter_'
'mountains_'
'narrow_'
'stop_'
'military_'
'meaning_'
'employed_'
'Old_'
'situation_'
'trying_'
'takes_'
'box_'
'greatly_'
'Will_'
'f_'
'WITH_'
'finally_'
'25_'
'size_'
'yes_'
'trust_'
'b_'
'fortune_'
'serious_'
'wise_'
'\u, \u_'
'enter_'
'repeated_'
'stream_'
'reading_'
'wine_'
'30_'
'main_'
'fallen_'
'move_'
'\u (_'
'laugh_'
'bird_'
'Paul_'
'touch_'
'spoken_'
'Madame_'
'thrown_'
'looks_'
'begin_'
'West_'
'movement_'
'prove_'
'working_'
'promise_'
'rate_'
'17_'
'sake_'
'breath_'
'hall_'
'conditions_'
'ring_'
'published_'
'yellow_'
'Jesus_'
'wonderful_'
'servant_'
'neck_'
'information_'
'spite_'
'worthy_'
'coast_'
'difference_'
'worse_'
'threw_'
'vain_'
'presented_'
'health_'
'thick_'
'affairs_'
'"'_'
'carefully_'
'advantage_'
'support_'
'ears_'
'crowd_'
'remains_'
'decided_'
'occupied_'
'besides_'
'pure_'
'post_'
'facts_'
'fit_'
'18_'
'Every_'
'hat_'
'nine_'
'talking_'
'terms_'
'weeks_'
'obliged_'
'excellent_'
'sword_'
'anxious_'
'consider_'
'numerous_'
'remarkable_'
'feelings_'
'peculiar_'
'TO_'
'June_'
'foreign_'
'Sidenote_'
'sign_'
'stage_'
'altogether_'
'succeeded_'
'individual_'
'V_'
'bottom_'
'quick_'
'exactly_'
'style_'
'questions_'
'drink_'
'darkness_'
'heat_'
'finished_'
'established_'
'forced_'
'social_'
'clothes_'
'instant_'
'gate_'
'colour_'
'effort_'
'taste_'
'progress_'
'powers_'
'events_'
'spread_'
'distant_'
'gentlemen_'
'bread_'
'weight_'
'ness_'
'aid_'
'weather_'
'holding_'
'east_'
'hills_'
'ideas_'
'extent_'
'ships_'
'lies_'
'settled_'
'path_'
'sick_'
'liberty_'
'50_'
'glance_'
'otherwise_'
'expect_'
'marked_'
'quarter_'
'forest_'
'offer_'
'wounded_'
'guard_'
'regarded_'
'rising_'
'courage_'
'allow_'
'prevent_'
'judge_'
'confidence_'
'streets_'
'\u,_'
'particularly_'
'Fig_'
'pp_'
'material_'
'vast_'
'leading_'
'sought_'
'serve_'
'que_'
'First_'
'practice_'
'famous_'
'highest_'
'upper_'
'ns_'
'rain_'
'opening_'
'Spanish_'
'forgotten_'
'sorry_'
'add_'
'page_'
'July_'
'measure_'
'capital_'
'removed_'
'fancy_'
'grass_'
'principle_'
'royal_'
'Court_'
'Or_'
'March_'
'promised_'
'glory_'
'evidently_'
'sharp_'
'des_'
'iii_'
'pride_'
'wouldn_'
'dream_'
'Street_'
'Many_'
'se_'
'centre_'
'cost_'
'square_'
'vessel_'
'Just_'
'entire_'
'judgment_'
'report_'
'les_'
'season_'
'fate_'
'valley_'
'powerful_'
'ear_'
'grace_'
'woods_'
'becomes_'
'Are_'
'refused_'
'grown_'
'passion_'
'lot_'
'companion_'
'!--_'
'mass_'
'song_'
'keeping_'
'principal_'
'Have_'
'appointed_'
'served_'
'sad_'
'contrary_'
'.) _'
'hearts_'
'watched_'
'Robert_'
'shook_'
'daily_'
'possessed_'
'fashion_'
'thin_'
'science_'
'height_'
'stranger_'
'smiled_'
'pointed_'
'servants_'
'Richard_'
'equally_'
'start_'
'Did_'
'pounds_'
'ie_'
'lose_'
'price_'
'carriage_'
'President_'
'edge_'
'tall_'
'growing_'
'apparently_'
'share_'
'sin_'
'blow_'
'.\u, _'
'waters_'
'knowing_'
'Spain_'
'aside_'
'distinguished_'
'necessity_'
'larger_'
'ts_'
'spirits_'
'papers_'
'consequence_'
'| _'
'proud_'
'grand_'
'marry_'
'advance_'
', &_'
'?'_'
'throughout_'
'increased_'
'remembered_'
'tea_'
'advanced_'
'Before_'
'hung_'
'popular_'
'dollars_'
'follows_'
'draw_'
'19_'
'expressed_'
'principles_'
'education_'
'produce_'
'uncle_'
'provided_'
'mighty_'
'desired_'
'holy_'
'Nor_'
'remarked_'
'station_'
'dropped_'
'   _'
'>_'
'storm_'
'date_'
'isn_'
'] \u_'
'title_'
'quietly_'
'occurred_'
'stones_'
'motion_'
'slight_'
'breast_'
'na_'
'suggested_'
'inches_'
'Edward_'
'moon_'
'false_'
'De_'
'vol_'
'subjects_'
'double_'
'direct_'
'played_'
'taught_'
'nations_'
'seek_'
'April_'
'grow_'
'honor_'
'shoulder_'
'brave_'
'cloth_'
'During_'
'est_'
'‘_'
'method_'
'enemies_'
'explained_'
'delight_'
'wealth_'
',[_'
'shut_'
'honest_'
'poet_'
'inhabitants_'
'process_'
'shape_'
'Only_'
'couldn_'
'skin_'
'windows_'
'fingers_'
'failed_'
'worked_'
'ain_'
'rapidly_'
'sacred_'
'stands_'
'noticed_'
'naturally_'
'.... _'
'creature_'
'> _'
'carrying_'
'tongue_'
'joined_'
'actually_'
'shoulders_'
'satisfied_'
'ice_'
'shows_'
'Louis_'
'legs_'
' ‘_'
'Its_'
'suffered_'
' & _'
'soldier_'
'21_'
'bodies_'
'faces_'
'dressed_'
'ton_'
'surprised_'
'crossed_'
'bearing_'
'comfort_'
'guns_'
'golden_'
'divine_'
'24_'
'dare_'
'priest_'
'proceeded_'
'coat_'
'gentle_'
'connected_'
'description_'
'unknown_'
'directly_'
'pocket_'
'22_'
'driven_'
'seized_'
'Master_'
'weak_'
'familiar_'
'rooms_'
'volume_'
'rocks_'
'regular_'
'fruit_'
'gathered_'
'prince_'
'finding_'
'accompanied_'
'{_'
'La_'
'dangerous_'
'mark_'
'pair_'
'Life_'
'series_'
'sons_'
'ball_'
'tired_'
'Nothing_'
'completely_'
'Emperor_'
'numbers_'
'group_'
'figures_'
'mile_'
'Thou_'
'writer_'
'David_'
'claim_'
'Sunday_'
'bridge_'
'agreed_'
'fields_'
'tender_'
'India_'
'supply_'
'surely_'
'yards_'
'IV_'
'Washington_'
'kill_'
'palace_'
'Man_'
'treated_'
'Another_'
'rights_'
'favour_'
'relief_'
'applied_'
'ON_'
'freedom_'
'handsome_'
'East_'
'rank_'
'!” _'
'clearly_'
'telling_'
'teeth_'
'reader_'
'twice_'
'bent_'
'arrival_'
'concerning_'
'\u; _'
'search_'
'angry_'
'saved_'
'cover_'
'Those_'
'sum_'
'kingdom_'
'admitted_'
'proof_'
'objects_'
'farther_'
'Indeed_'
'lands_'
'dozen_'
'bore_'
'mention_'
'theory_'
'touched_'
'results_'
'Italy_'
'waited_'
'throw_'
'rough_'
'breakfast_'
'Smith_'
'Was_'
'flesh_'
'belief_'
'August_'
'alive_'
'midst_'
'River_'
'smoke_'
'struggle_'
'consideration_'
'willing_'
'Dick_'
'duties_'
'sing_'
'lake_'
'task_'
'z_'
'stock_'
'habit_'
'However_'
'absence_'
'suffering_'
'fifteen_'
'amongst_'
'soil_'
'represented_'
'national_'
'inside_'
'gradually_'
'Germany_'
'pity_'
'needed_'
'proposed_'
'talked_'
'23_'
'Though_'
'forces_'
'minds_'
'gun_'
'ch_'
'burning_'
'?” _'
'efforts_'
'extraordinary_'
'Still_'
'introduced_'
'drive_'
'pray_'
'excitement_'
'rode_'
'whispered_'
'8vo_'
'Majesty_'
'putting_'
'useful_'
'ia_'
'calm_'
'development_'
'fly_'
'.\u--_'
'march_'
'truly_'
'}_'
'crown_'
'!' _'
'aware_'
'demanded_'
'member_'
'color_'
'relations_'
'walking_'
'connection_'
'entrance_'
'features_'
'sympathy_'
'closely_'
'impression_'
'burst_'
'nice_'
'moving_'
'accepted_'
'secure_'
'obtain_'
'yours_'
'Harry_'
'term_'
'whilst_'
'genius_'
'informed_'
'relation_'
'previous_'
'salt_'
'quantity_'
'birth_'
'ce_'
'satisfaction_'
'level_'
'watching_'
'shadow_'
'possibly_'
'Had_'
'ic_'
'prison_'
'brain_'
'hearing_'
'origin_'
'superior_'
'increase_'
'castle_'
'Philip_'
'lovely_'
'absolutely_'
'type_'
'sold_'
'advice_'
'divided_'
'prayer_'
'os_'
'fighting_'
'Very_'
'nearer_'
'vessels_'
'falling_'
'slow_'
'busy_'
'seated_'
'custom_'
'buried_'
'noise_'
'explain_'
'prisoners_'
'beat_'
'affair_'
'worn_'
'virtue_'
'firm_'
'parties_'
'base_'
'Congress_'
'Frank_'
'doors_'
'presently_'
'Can_'
' | _'
'thoroughly_'
'highly_'
'ceased_'
'evident_'
'prisoner_'
'Heaven_'
'composed_'
'gained_'
'splendid_'
'milk_'
'surrounded_'
'wants_'
'circle_'
'roof_'
'interests_'
'ies_'
'Him_'
'chamber_'
'guess_'
'ride_'
'gods_'
'sorrow_'
'partly_'
'loud_'
'stars_'
'clean_'
'ere_'
'parents_'
'nt_'
'showing_'
'wore_'
'faithful_'
'careful_'
'empty_'
'accept_'
'practical_'
'physical_'
'arranged_'
'catch_'
'active_'
'28_'
'calling_'
'affection_'
'Nature_'
'notes_'
'resolved_'
'express_'
'Italian_'
'join_'
'26_'
'listened_'
'literature_'
'control_'
'Never_'
'rendered_'
'fool_'
'supper_'
'ends_'
'ry_'
'sand_'
'capable_'
'flower_'
'Holy_'
'Major_'
'listen_'
'fellows_'
'Count_'
'suffer_'
'el_'
'Defn_'
'plants_'
'welcome_'
'hole_'
'dust_'
'begun_'
'unable_'
'.= _'
'hopes_'
'Go_'
'wholly_'
'branches_'
'Little_'
'population_'
'Royal_'
'laughing_'
'moments_'
'successful_'
'worship_'
'Besides_'
'queen_'
'happen_'
'Company_'
'constant_'
'attached_'
'content_'
'27_'
'deeply_'
'dying_'
'directed_'
'slave_'
'lad_'
'interested_'
'stated_'
'flat_'
'imagination_'
'adopted_'
'thank_'
'delicate_'
'kindly_'
'chosen_'
'deck_'
'imagine_'
'exercise_'
'Pope_'
'tells_'
'approach_'
'destroyed_'
'=, _'
'safety_'
'valuable_'
'causes_'
'History_'
'contained_'
'constantly_'
'crime_'
'Irish_'
'spiritual_'
'cup_'
'admit_'
'escaped_'
'trial_'
'kinds_'
'wisdom_'
'liked_'
'citizens_'
'40_'
', (_'
'hurt_'
'pictures_'
'mad_'
'reasons_'
'September_'
'mistake_'
'minister_'
'brilliant_'
'band_'
'?' _'
'lifted_'
'current_'
'pressed_'
'ons_'
'Hall_'
'continue_'
'War_'
'Ireland_'
'concerned_'
'October_'
'quarters_'
'stories_'
'tail_'
'Rev_'
'drove_'
'yard_'
'wings_'
'visited_'
'countries_'
'rare_'
'sacrifice_'
'protection_'
'quality_'
'devil_'
'fail_'
'views_'
'fairly_'
'gray_'
'separate_'
'fond_'
'smiling_'
'extreme_'
'Among_'
'bow_'
'cruel_'
'wear_'
'printed_'
'bringing_'
'bitter_'
'White_'
'excited_'
'compelled_'
'Professor_'
'Take_'
'playing_'
'earlier_'
'---- _'
'variety_'
'addressed_'
': \u_'
'DW64_'
'bill_'
'Joseph_'
'statement_'
'patient_'
'ages_'
'hoped_'
'immediate_'
'non_'
'countenance_'
'devoted_'
'fourth_'
'huge_'
'Society_'
'ion_'
'City_'
'cousin_'
'} _'
'car_'
'drop_'
'oil_'
'sufficiently_'
'stairs_'
'doctrine_'
'actual_'
'nose_'
'buy_'
'cent_'
'clouds_'
'terror_'
'assistance_'
'female_'
'100_'
'boats_'
'bare_'
'dogs_'
'becoming_'
'fought_'
'disease_'
'arose_'
'chiefly_'
'classes_'
'worst_'
'effects_'
'suit_'
'gain_'
'fault_'
'meat_'
'"--_'
'mercy_'
'cities_'
'grief_'
'event_'
'    _'
'disappeared_'
'conclusion_'
'distinct_'
'flight_'
'----"_'
'friendship_'
'brief_'
'speed_'
'yesterday_'
'victory_'
'enjoy_'
'couple_'
'article_'
'acquaintance_'
'dignity_'
'shop_'
'intention_'
'range_'
'Having_'
'29_'
'demand_'
'energy_'
'painted_'
'ended_'
'everywhere_'
'Bishop_'
'striking_'
'sooner_'
',’ _'
'address_'
'policy_'
'.--\u_'
'Look_'
'labour_'
'region_'
'tale_'
'proportion_'
'w_'
'mistress_'
'ta_'
'friendly_'
'apart_'
'un_'
'Uncle_'
'banks_'
'blind_'
'changes_'
'K_'
'lover_'
'reference_'
'goods_'
'Like_'
'plenty_'
'choice_'
'witness_'
' $_'
'details_'
'slightly_'
'knees_'
'mental_'
'sugar_'
'bell_'
'ha_'
'final_'
'Three_'
'inch_'
'visible_'
'shame_'
'seldom_'
'?--_'
'Doctor_'
'skill_'
'Elizabeth_'
'discovery_'
'bought_'
'BY_'
'expedition_'
'Governor_'
'faint_'
'dull_'
'cap_'
'throne_'
'companions_'
'armed_'
'cattle_'
'farm_'
'guide_'
'commanded_'
'slaves_'
'purposes_'
'articles_'
'ma_'
'immense_'
'record_'
'grey_'
'gently_'
'hidden_'
'plant_'
'Earl_'
'reign_'
'civil_'
'Aunt_'
'Catholic_'
'extended_'
'About_'
'intelligence_'
'maid_'
'conscience_'
'corn_'
'treatment_'
'brothers_'
'severe_'
'January_'
'market_'
'attended_'
'explanation_'
'precious_'
'older_'
'00_'
'press_'
'everybody_'
'sail_'
'containing_'
'operation_'
'Monsieur_'
'nobody_'
'labor_'
'approached_'
'permitted_'
'signs_'
'understanding_'
'division_'
'haven_'
'message_'
'ra_'
'Scotland_'
'cool_'
'states_'
'assured_'
'fill_'
'acts_'
'; \u_'
'asleep_'
'thinks_'
'accustomed_'
'extremely_'
'strike_'
'hurried_'
'loose_'
'avoid_'
'(\u_'
'chapter_'
'plate_'
'wasn_'
'design_'
'singing_'
'oh_'
'list_'
' ... _'
'raise_'
'store_'
'machine_'
'pulled_'
'natives_'
'Once_'
'preserved_'
'thousands_'
'wound_'
'district_'
'Parliament_'
'eager_'
'services_'
'addition_'
'temple_'
'wishes_'
'Egypt_'
'net_'
'kindness_'
'needs_'
'Be_'
'instantly_'
'Mother_'
'.; _'
'anger_'
'iv_'
'ous_'
'families_'
'November_'
'finger_'
'occasionally_'
'celebrated_'
'Boston_'
'smaller_'
'Arthur_'
'characters_'
'Again_'
'murder_'
'destruction_'
'source_'
'returning_'
'conscious_'
'formerly_'
'tis_'
'despair_'
'Bible_'
'bold_'
'); _'
'hotel_'
'committed_'
'souls_'
'31_'
'eggs_'
'handed_'
'Each_'
'December_'
'ING_'
'Upon_'
'sheep_'
'calls_'
'port_'
'weary_'
'credit_'
'exist_'
'ate_'
'furnished_'
'require_'
'stick_'
'rushed_'
'rear_'
'praise_'
'dance_'
'awful_'
'ease_'
'innocent_'
'voices_'
'ment_'
'pages_'
'text_'
'delivered_'
'ahead_'
'learning_'
'poetry_'
'Britain_'
'~_'
'favor_'
'request_'
'towns_'
'possess_'
'accomplished_'
'acquainted_'
'sprang_'
'local_'
'admiration_'
'anxiety_'
'defence_'
'difficulties_'
'sixty_'
'remark_'
'contains_'
'police_'
'county_'
'reality_'
'Napoleon_'
'founded_'
'growth_'
': '_'
'Latin_'
'ings_'
'Poor_'
'whence_'
'earnest_'
'Island_'
'inclined_'
'recognized_'
'consciousness_'
'strongly_'
'guilty_'
'wet_'
'mounted_'
'hero_'
'younger_'
'ter_'
'properly_'
'San_'
'sentence_'
'kitchen_'
'qualities_'
'Since_'
'fleet_'
'Which_'
'rapid_'
'cloud_'
';" _'
'bones_'
'win_'
'glorious_'
'kings_'
'granted_'
'philosophy_'
'asking_'
'charming_'
'utterly_'
'probable_'
'baby_'
'interrupted_'
'confusion_'
'departure_'
'manners_'
'consent_'
'proceed_'
'habits_'
'copy_'
'knife_'
'inquired_'
'solemn_'
'violent_'
'discover_'
'choose_'
'shell_'
'regiment_'
'absolute_'
'fled_'
'argument_'
'belong_'
'Love_'
'throat_'
'Tell_'
'miserable_'
'fat_'
'smooth_'
'universal_'
'plans_'
'god_'
'Chinese_'
'literary_'
'performed_'
'pipe_'
'meal_'
'Jim_'
'centuries_'
'Jews_'
'setting_'
'Union_'
'governor_'
'doubtless_'
'!”_'
'reduced_'
'Bill_'
'majority_'
'der_'
'unfortunate_'
'dreadful_'
'afford_'
'doesn_'
'curiosity_'
'artist_'
'"\u_'
'shouted_'
'punishment_'
'il_'
'solid_'
'buildings_'
'aunt_'
'comfortable_'
'temper_'
'pressure_'
'affected_'
'movements_'
'harm_'
'breaking_'
'ruin_'
'da_'
'sell_'
'waves_'
'schools_'
'European_'
';--_'
'lest_'
'Margaret_'
'likewise_'
'vision_'
'writers_'
'Both_'
'Lake_'
'X_'
'Book_'
'count_'
'retired_'
'paused_'
'Because_'
'attitude_'
'sounds_'
'abroad_'
'created_'
'remaining_'
'gift_'
'belonged_'
'observe_'
'Russian_'
'library_'
'readily_'
'branch_'
'measures_'
'Would_'
'hast_'
'recent_'
'February_'
'Virginia_'
'bar_'
'render_'
'du_'
'frame_'
'priests_'
'frightened_'
'ignorant_'
'enjoyed_'
'shade_'
'pardon_'
'developed_'
'creatures_'
'edition_'
'cheeks_'
'teach_'
'hate_'
'borne_'
'swept_'
'substance_'
'frequent_'
'ey_'
'tribes_'
'flying_'
'referred_'
' |_'
'assumed_'
'lately_'
'apparent_'
'triumph_'
'key_'
'beg_'
'career_'
'fever_'
'degrees_'
'convinced_'
'stepped_'
'Council_'
'60_'
'Black_'
'approaching_'
'disposed_'
'northern_'
'lights_'
'      _'
'hence_'
'alike_'
'helped_'
'hide_'
'32_'
'separated_'
'correct_'
'35_'
'belonging_'
'mysterious_'
'feared_'
'silk_'
'opposition_'
'ocean_'
'eternal_'
'official_'
'mode_'
'secured_'
'Red_'
'excuse_'
'waste_'
'leader_'
'exposed_'
'VI_'
'observation_'
'announced_'
'owing_'
'host_'
'commenced_'
'remarks_'
'mixed_'
'fatal_'
'."  _'
'delay_'
'benefit_'
'mystery_'
'savage_'
'scattered_'
'Although_'
'opinions_'
'desert_'
'hunting_'
'agree_'
'unhappy_'
'magnificent_'
'pushed_'
'gay_'
'including_'
'Men_'
'whenever_'
'     _'
'wicked_'
'humble_'
'wooden_'
'acted_'
'fierce_'
'\u) _'
'softly_'
'Under_'
'.—_'
'laughter_'
'lighted_'
'guests_'
'arrangement_'
'examination_'
'western_'
'Sometimes_'
'delighted_'
'horror_'
'foolish_'
'suspicion_'
'ge_'
'pause_'
'spend_'
'anybody_'
'ar_'
'attend_'
'eagerly_'
'Most_'
'" (_'
'accident_'
'risk_'
'expense_'
'utmost_'
'cabin_'
'islands_'
'appeal_'
'thanks_'
'plainly_'
'compared_'
'singular_'
'reputation_'
'concluded_'
'managed_'
'confess_'
'atmosphere_'
'dreams_'
'Christmas_'
'council_'
'hitherto_'
'voyage_'
'sees_'
'related_'
'steam_'
'refuse_'
'blessed_'
'attempted_'
'delightful_'
'scheme_'
'picked_'
'Princess_'
'·_'
'uttered_'
'crew_'
'ad_'
'collection_'
'Saint_'
'.,_'
'row_'
'generous_'
'Spirit_'
'estate_'
'scientific_'
'intellectual_'
'household_'
'acid_'
'shining_'
'Sea_'
'essential_'
'mankind_'
'characteristic_'
'stretched_'
'Hill_'
'distinction_'
'authorities_'
'~} {~_'
'slept_'
'churches_'
'occasions_'
'bosom_'
'tribe_'
'independent_'
'ES_'
'co_'
'wit_'
'kissed_'
'kiss_'
'image_'
'tower_'
'issued_'
'ble_'
'ur_'
'Joe_'
'retreat_'
'rage_'
'rules_'
'fired_'
'regret_'
'Christians_'
'rolled_'
'!'_'
'hers_'
'riding_'
'stern_'
'pen_'
'ley_'
'freely_'
'rope_'
'reported_'
'= _'
'united_'
'.] _'
'grounds_'
'knight_'
'urged_'
'falls_'
'butter_'
'Fort_'
'forgot_'
'fame_'
'trembling_'
'travel_'
'loving_'
'nevertheless_'
'ED_'
'collected_'
'alarm_'
': “_'
'community_'
'domestic_'
'keen_'
'luck_'
'DW72_'
'Jane_'
'star_'
'somewhere_'
'elements_'
'ling_'
'Russia_'
'marks_'
'enormous_'
'gets_'
'tent_'
'perceived_'
'ignorance_'
':  _'
'reward_'
'useless_'
'circumstance_'
'supported_'
'acquired_'
'College_'
'completed_'
'Page_'
'destroy_'
'section_'
'Alexander_'
'tide_'
'noted_'
'charm_'
'scenes_'
'burned_'
'More_'
'derived_'
'constitution_'
'hanging_'
'Lieutenant_'
'humanity_'
'issue_'
'melancholy_'
'coffee_'
'invited_'
'Martin_'
'fort_'
'agreeable_'
'resolution_'
'elsewhere_'
'crowded_'
'cat_'
'ham_'
'roads_'
'bag_'
'gaze_'
'Thy_'
'tied_'
'trace_'
'emotion_'
'cavalry_'
'gazed_'
'33_'
'interior_'
'spare_'
'gates_'
'disposition_'
'union_'
'speaks_'
'instrument_'
'beloved_'
'turns_'
'lack_'
'province_'
'misery_'
'wondered_'
'eleven_'
'forehead_'
'poem_'
'methods_'
'finds_'
'thrust_'
'discussion_'
'previously_'
'provisions_'
'charged_'
'examined_'
'painful_'
'enthusiasm_'
'attacked_'
'utter_'
'rush_'
'listening_'
' {_'
'firmly_'
'45_'
'outer_'
'exact_'
'flame_'
'accordingly_'
'Mark_'
'consists_'
'southern_'
'\u--_'
'Africa_'
'recovered_'
'steel_'
'36_'
'entitled_'
'violence_'
'ah_'
'tion_'
'ER_'
'dared_'
'wheel_'
'troubled_'
'chain_'
'sigh_'
'exception_'
'instances_'
'wing_'
'nervous_'
'marched_'
'Christianity_'
'confined_'
'total_'
'hastily_'
'begins_'
'using_'
'execution_'
'average_'
'shelter_'
'residence_'
'male_'
'hit_'
'decision_'
'bay_'
'lamp_'
'forming_'
'Dutch_'
'VIII_'
'teaching_'
'aspect_'
'entering_'
'dawn_'
'Israel_'
'territory_'
'thence_'
'college_'
'."[_'
'pursued_'
'Brown_'
'Rose_'
'.’_'
'+_'
'glanced_'
'inner_'
'reaching_'
'structure_'
'resistance_'
'passes_'
'owner_'
'cook_'
'solution_'
'merry_'
'amid_'
'runs_'
'millions_'
'blame_'
'[\u_'
'[=_'
'operations_'
'Young_'
'consequently_'
'supplied_'
'Death_'
'VII_'
'build_'
'cheek_'
'Therefore_'
'brow_'
'establishment_'
'^_'
'desperate_'
'error_'
'hurry_'
'Anne_'
'clever_'
'haste_'
'patience_'
'leg_'
'pour_'
'widow_'
'Day_'
'stronger_'
'directions_'
'mistaken_'
'weakness_'
'au_'
'abandoned_'
'slavery_'
'maintained_'
'failure_'
'ation_'
'Shall_'
'central_'
'mission_'
'foundation_'
'railway_'
'34_'
'flag_'
'Johnson_'
'existed_'
'bottle_'
'Long_'
'Francis_'
'application_'
'ions_'
'sentiment_'
'bowed_'
'audience_'
'University_'
'Helen_'
'daughters_'
'murmured_'
'eating_'
'nearest_'
'favourite_'
'Act_'
'cutting_'
'descended_'
'track_'
'ours_'
'occur_'
'forgive_'
'empire_'
'lonely_'
'Sam_'
'verse_'
'restored_'
'writes_'
'wretched_'
'experienced_'
'recently_'
'match_'
'ashamed_'
'presents_'
'communication_'
'afterward_'
'departed_'
'concealed_'
'treat_'
'opposed_'
'U_'
'cries_'
'activity_'
'increasing_'
'exceedingly_'
'accounts_'
'grant_'
'75_'
'sleeping_'
'profession_'
'masters_'
'eth_'
'sisters_'
'gratitude_'
'warning_'
'historical_'
'Walter_'
'scale_'
'shed_'
'Bay_'
'Crown_'
'acting_'
'standard_'
'seed_'
'erected_'
'hollow_'
'flew_'
'neighbourhood_'
'den_'
'actions_'
'Bob_'
'Vol_'
'depth_'
'generation_'
'beast_'
'bears_'
'ALPHA_'
'landed_'
'flung_'
', ‘_'
'Castle_'
'Oxford_'
'contain_'
'Tis_'
'slightest_'
'       _'
'poured_'
'industry_'
'Second_'
'China_'
'à_'
'ine_'
'conducted_'
'teacher_'
'tones_'
'loves_'
'senses_'
'1st_'
'signal_'
'Hence_'
'prayers_'
'brings_'
'faced_'
'element_'
'shoes_'
'limited_'
'gas_'
'captured_'
'permit_'
'conviction_'
'midnight_'
'Canada_'
'rude_'
'Without_'
'sorts_'
'yield_'
'leaf_'
'', _'
'seriously_'
'conception_'
'beings_'
'cottage_'
'noon_'
'begged_'
'construction_'
'readers_'
'marble_'
'Nay_'
'suggestion_'
'seeking_'
'preceding_'
'steady_'
'engine_'
'treaty_'
'incident_'
'claims_'
'-- _'
'threatened_'
'behold_'
'ideal_'
'altar_'
'assembled_'
'capacity_'
'situated_'
'rested_'
'deny_'
'largely_'
'unusual_'
'insisted_'
'Law_'
'ls_'
'holds_'
'é_'
'relative_'
'80_'
'37_'
'nodded_'
'dancing_'
'remove_'
'maintain_'
'200_'
'permission_'
'winds_'
'hungry_'
'Give_'
'Lincoln_'
'ff_'
'necessarily_'
'nurse_'
'38_'
'continually_'
'problem_'
'burden_'
'devotion_'
'driving_'
'Also_'
'settlement_'
'receiving_'
'powder_'
'intense_'
'rarely_'
'Jones_'
'headed_'
'commonly_'
'sovereign_'
'bishop_'
'throwing_'
'contact_'
'prospect_'
'crying_'
'imagined_'
'distinctly_'
'ke_'
'ability_'
'contempt_'
'astonishment_'
'sending_'
',—_'
'forever_'
'ty_'
'von_'
'beaten_'
'rivers_'
'dread_'
'cotton_'
'nights_'
'shortly_'
'ck_'
': [_'
'safely_'
'protect_'
'trail_'
'hearted_'
'testimony_'
'individuals_'
'Van_'
'earliest_'
'Grand_'
'practically_'
'notwithstanding_'
'drinking_'
'ceremony_'
'sunshine_'
'detail_'
'studied_'
'ted_'
'prevented_'
'tes_'
'farmer_'
'represent_'
'strangers_'
'tendency_'
'wives_'
'burn_'
'aloud_'
'exhausted_'
'agent_'
'resumed_'
'legal_'
'di_'
'aged_'
'belongs_'
'notion_'
'eastern_'
'committee_'
'succession_'
'sang_'
'contents_'
'seventy_'
'astonished_'
'venture_'
'horrible_'
'interview_'
'settle_'
'mud_'
'Next_'
'folk_'
'cheerful_'
'slipped_'
'Son_'
'route_'
'selected_'
'existing_'
'dim_'
'Le_'
'39_'
'Secretary_'
'sank_'
'somehow_'
'oath_'
'infinite_'
'fathers_'
'originally_'
'fun_'
'deserted_'
'coal_'
'42_'
'Romans_'
'lofty_'
'consequences_'
'Jerusalem_'
'shadows_'
'suitable_'
'--\u_'
'mortal_'
'shake_'
'Time_'
'possibility_'
'pound_'
'doth_'
'|  _'
'pursuit_'
'ay_'
'raising_'
'treasure_'
'hundreds_'
'root_'
'counsel_'
'Q_'
'ambition_'
'declare_'
'shaped_'
'aim_'
'70_'
'describe_'
'angel_'
'purple_'
'Co_'
'guest_'
'commander_'
'roll_'
'; '_'
'quoted_'
'masses_'
'nest_'
'emperor_'
'Through_'
'muttered_'
'strain_'
'resting_'
'distress_'
'fitted_'
'extensive_'
'metal_'
'ans_'
'sole_'
'hang_'
'idle_'
'eighteen_'
'instructions_'
'bone_'
'saddle_'
'succeed_'
'Southern_'
'pull_'
'], _'
'revealed_'
'colours_'
'enabled_'
'ville_'
'furniture_'
'external_'
'obey_'
'crossing_'
'materials_'
'poverty_'
'heavily_'
'elder_'
'odd_'
'moreover_'
'–_'
'People_'
'fears_'
'victim_'
'ruins_'
'Grace_'
'regarding_'
'Jean_'
'portrait_'
'temperature_'
'merchant_'
'41_'
'Ben_'
'profound_'
'Meanwhile_'
'thine_'
'feast_'
'Western_'
'passages_'
'impulse_'
'contrast_'
'production_'
'suspected_'
'chose_'
'inquiry_'
'indicated_'
'staff_'
'uniform_'
'commerce_'
'card_'
'sensible_'
'bride_'
'ian_'
'composition_'
'vote_'
'parish_'
'touching_'
'High_'
'sale_'
'somebody_'
'ford_'
'disturbed_'
'requires_'
'cards_'
'sheet_'
'grateful_'
'profit_'
'anyone_'
'beds_'
'Spaniards_'
'chapel_'
'reflection_'
'46_'
'sex_'
'definite_'
'fearful_'
'burnt_'
'44_'
'OMICRON_'
'absent_'
'stared_'
'trip_'
'IOTA_'
'deeds_'
'supreme_'
'test_'
'gardens_'
'lesson_'
'Maria_'
'sailed_'
'inferior_'
'intelligent_'
'wave_'
'included_'
'reasonable_'
'apply_'
'Temple_'
'defend_'
'merit_'
'rid_'
'maiden_'
'perceive_'
'Scott_'
'Judge_'
'lawyer_'
'wanting_'
'clerk_'
'campaign_'
'pains_'
'coach_'
'wire_'
'shock_'
'AN_'
'cared_'
'anywhere_'
'condemned_'
'leads_'
'column_'
'namely_'
'Moses_'
'training_'
'limbs_'
'stayed_'
'Michael_'
'obvious_'
'sa_'
'wrought_'
'torn_'
'badly_'
'introduction_'
'sins_'
'genuine_'
'pronounced_'
'Germans_'
'enable_'
'instinct_'
'ranks_'
'flow_'
'combined_'
'shone_'
'folks_'
'US_'
'Empire_'
'club_'
'holes_'
'FOR_'
'medicine_'
'.), _'
'tiny_'
'Certainly_'
'songs_'
'parted_'
'chest_'
'bark_'
'Thank_'
'- _'
'43_'
'Dear_'
'bade_'
'AT_'
'performance_'
'deed_'
'steadily_'
'villages_'
'dwelling_'
'48_'
'scarce_'
'overcome_'
'autumn_'
'regions_'
'Saturday_'
'induced_'
'apt_'
'fastened_'
'rent_'
'fed_'
'copper_'
'perform_'
'comparison_'
'advantages_'
'arts_'
'deeper_'
'lightly_'
'hell_'
'multitude_'
'Moreover_'
'princes_'
'employment_'
'stir_'
'Florence_'
'comparatively_'
'boots_'
'prepare_'
'Etym_'
'provide_'
'hastened_'
'School_'
'pointing_'
'gifts_'
'election_'
'civilization_'
'sounded_'
'displayed_'
'Mexico_'
'ni_'
'finest_'
'thereby_'
'assure_'
'student_'
'awake_'
'hospital_'
'bye_'
'Hugh_'
'EPSILON_'
'relieved_'
'commission_'
'blessing_'
'Art_'
'assist_'
'repeat_'
'consisted_'
'Chief_'
'craft_'
'shoot_'
'shalt_'
'thunder_'
'steep_'
'signed_'
'quarrel_'
'realized_'
'basis_'
'breeze_'
'Chapter_'
'painting_'
'Cape_'
'limits_'
'slender_'
'wedding_'
'politics_'
'artillery_'
'beasts_'
'intervals_'
'offering_'
'fifth_'
'gazing_'
'permanent_'
'folly_'
'bless_'
'denied_'
'starting_'
'motive_'
'wherever_'
'feed_'
'naked_'
'eaten_'
'considering_'
'fortunate_'
'heavens_'
'Shakespeare_'
'intimate_'
'purchase_'
'prize_'
'preserve_'
'sharply_'
'occupation_'
'exchange_'
'Alice_'
'  |_'
'Nevertheless_'
'ka_'
'vague_'
'duke_'
'grain_'
'hadn_'
'brethren_'
'plates_'
'slain_'
'laying_'
'administration_'
'decide_'
'leaning_'
'vi_'
'pace_'
'finish_'
'kin_'
'groups_'
'enterprise_'
'rifle_'
'clay_'
'goodness_'
'ee_'
'travelling_'
'theatre_'
'covering_'
'World_'
'gallant_'
'47_'
'apartment_'
'deg_'
'volumes_'
'determination_'
'cents_'
'arrive_'
'pick_'
'Park_'
'qui_'
'largest_'
'shaking_'
'narrative_'
'gather_'
'attracted_'
'startled_'
'physician_'
'tin_'
'perfection_'
'examine_'
'Being_'
'washed_'
'inspired_'
'Suddenly_'
'pine_'
'." "_'
'Whether_'
'stout_'
'),_'
'commercial_'
'supplies_'
'500_'
'check_'
'National_'
'beheld_'
'sixteen_'
'doubtful_'
'satisfactory_'
'executed_'
'Americans_'
'records_'
'tradition_'
'observations_'
'lively_'
'visitor_'
'ism_'
'magic_'
'inn_'
'elected_'
'recorded_'
'depend_'
'primitive_'
'plays_'
'leaned_'
'rival_'
'mate_'
'nay_'
'Army_'
'absurd_'
'chap_'
'endure_'
'fourteen_'
'55_'
'attempts_'
'swift_'
'stroke_'
'lion_'
'tobacco_'
'Billy_'
'stuff_'
'respects_'
'score_'
'debt_'
'dish_'
'prominent_'
'gathering_'
'Ned_'
'queer_'
'IX_'
'90_'
'whisper_'
'customs_'
'dragged_'
'preferred_'
'fires_'
'cease_'
'gloomy_'
'roots_'
'followers_'
'prefer_'
'positive_'
'tear_'
'fury_'
'Greeks_'
'thereof_'
'ridge_'
'oak_'
'examples_'
'dining_'
'wondering_'
'solitary_'
'proceedings_'
'whereas_'
'respecting_'
'Constitution_'
'steamer_'
'cleared_'
'ity_'
'Lucy_'
'hesitated_'
'graceful_'
'cure_'
'conceived_'
'security_'
'shells_'
'miss_'
'65_'
'respectable_'
'fishing_'
'remote_'
'mood_'
'ses_'
'obedience_'
'armies_'
'leaders_'
'preparing_'
'independence_'
'Lee_'
'streams_'
'eyed_'
'million_'
'basket_'
'convenient_'
'writings_'
'...._'
'ruined_'
'Soon_'
'assume_'
'hatred_'
'According_'
'rays_'
'feeble_'
'novel_'
'phrase_'
'recognised_'
'creation_'
'rd_'
'homes_'
'reception_'
'precisely_'
'        _'
'Say_'
'feature_'
'additional_'
'," "_'
'ca_'
'sensation_'
'indignation_'
'adventure_'
'troubles_'
'exists_'
'grandfather_'
'studies_'
' ’_'
'resist_'
'flour_'
'musical_'
'arrangements_'
'Neither_'
'fruits_'
'mostly_'
'paying_'
'passions_'
'beach_'
'Samuel_'
'locked_'
'refuge_'
'colony_'
'students_'
'grows_'
'Caesar_'
'rolling_'
'instruction_'
'sighed_'
'amusement_'
'arise_'
'capture_'
'leather_'
'manage_'
'.=_'
'admirable_'
'Cross_'
'happens_'
'department_'
'involved_'
'wrath_'
'MS_'
',) _'
'Senate_'
'humour_'
'49_'
'constructed_'
'#_'
'demands_'
'thither_'
'mixture_'
'knee_'
'owe_'
'climate_'
'slip_'
'tomb_'
'earnestly_'
'vanished_'
'majesty_'
'Were_'
'institutions_'
'Other_'
'claimed_'
'Green_'
'hid_'
'area_'
'ard_'
'afforded_'
'mingled_'
'responsible_'
'Mount_'
'attained_'
'privilege_'
'discipline_'
'preparation_'
'mill_'
'columns_'
'races_'
'experiment_'
'pot_'
'courts_'
'egg_'
'reflected_'
'poets_'
'dried_'
'newspaper_'
'unexpected_'
'yer_'
'Adam_'
'zeal_'
'; “_'
'disappointed_'
'drank_'
'grasp_'
'disappointment_'
'lightning_'
'offices_'
'feathers_'
'æ_'
'depths_'
'daring_'
'railroad_'
'phenomena_'
'plains_'
'JOHN_'
'landing_'
'formation_'
'retained_'
'hated_'
'Philadelphia_'
'bid_'
'varied_'
'clothing_'
'seas_'
'procession_'
'enjoyment_'
'----_'
'ant_'
'swear_'
'prosperity_'
'depends_'
'provinces_'
'dwell_'
'51_'
'deer_'
'medical_'
'lift_'
'surrender_'
'arrested_'
'Holland_'
'impressed_'
'reports_'
'surrounding_'
'darling_'
'ugly_'
'eh_'
'52_'
'conflict_'
'feels_'
'Grant_'
'wherein_'
'defeat_'
'summit_'
'invitation_'
'ally_'
'neglected_'
'harmony_'
'injury_'
'straw_'
'ius_'
'sentiments_'
'handle_'
'desires_'
'trunk_'
'preparations_'
'lock_'
'furnish_'
'concern_'
'uses_'
'undoubtedly_'
'beating_'
'charity_'
'sh_'
'simplicity_'
'translation_'
'virtues_'
'engagement_'
'ss_'
'educated_'
'64_'
'eighty_'
'tables_'
'Committee_'
'pack_'
'horizon_'
'proceeding_'
'wearing_'
'`_'
'persuaded_'
'FIG_'
'\u), _'
'drunk_'
'Minister_'
'criminal_'
'subsequent_'
'vice_'
'princess_'
'rises_'
'NU_'
'ministers_'
'56_'
'intercourse_'
'establish_'
'knocked_'
'wandering_'
'parallel_'
'Land_'
'Asia_'
'verses_'
'Any_'
'poems_'
'wash_'
'revenge_'
'visitors_'
'siege_'
'flood_'
'cave_'
'dressing_'
'misfortune_'
'culture_'
'hut_'
'display_'
'fig_'
'balance_'
'lo_'
'cultivated_'
'tie_'
'accused_'
'weapons_'
'specimens_'
'54_'
'angels_'
'shores_'
'picturesque_'
'regards_'
'Baron_'
'extra_'
'Several_'
'keeps_'
'rang_'
'acknowledged_'
'mischief_'
'medium_'
'suggest_'
'papa_'
'wheels_'
'objection_'
'load_'
'Marie_'
'Englishman_'
'stiff_'
'wages_'
'minded_'
'planted_'
'revolution_'
'improvement_'
'timber_'
'summoned_'
'candle_'
'platform_'
'<_'
'organization_'
'passengers_'
'Stephen_'
'ors_'
'62_'
'Office_'
'Greece_'
'ier_'
'companies_'
'ut_'
' = _'
'horn_'
'garrison_'
'Does_'
'Frederick_'
'gloom_'
'beard_'
'coarse_'
'res_'
'desk_'
'53_'
'brass_'
'pink_'
'mamma_'
'flash_'
'unconscious_'
'cell_'
'jumped_'
'Dan_'
'vigorous_'
'recall_'
' |  _'
'paint_'
' =_'
'satisfy_'
'occurs_'
'considerably_'
'job_'
'motives_'
'helpless_'
'experiments_'
'crept_'
'offence_'
'firing_'
'59_'
'entertained_'
'diameter_'
'Ralph_'
'funeral_'
'trained_'
'prey_'
'pole_'
'colonel_'
'favorite_'
'sport_'
'destined_'
'bushes_'
'roses_'
'chiefs_'
'indifferent_'
'heap_'
'smell_'
'institution_'
'Presently_'
'cloak_'
'tales_'
'bush_'
'$_'
'responsibility_'
'agony_'
'63_'
'si_'
'daylight_'
'acres_'
'authors_'
'conceal_'
'tenderness_'
'bells_'
'dirty_'
'wagon_'
'OXIA_'
'fur_'
'exhibited_'
'uncertain_'
'deliver_'
'confirmed_'
'warriors_'
'risen_'
'ful_'
'internal_'
'drops_'
'occasional_'
'associated_'
'suspect_'
'cow_'
'instruments_'
'appointment_'
'adding_'
'critical_'
'57_'
'boiling_'
'True_'
'deadly_'
'corps_'
'closer_'
'Northern_'
'lieutenant_'
'bull_'
'trick_'
'58_'
'ventured_'
'Jewish_'
'Roger_'
'OR_'
'lessons_'
'losing_'
'mutual_'
'outward_'
'chin_'
'criticism_'
'exquisite_'
'messenger_'
'distinguish_'
'veil_'
'nerves_'
'pile_'
'accompany_'
'electric_'
'effected_'
'Up_'
'300_'
'ys_'
'         _'
'behalf_'
'hostile_'
'hunt_'
'stirred_'
'flames_'
'proposition_'
'portions_'
'romance_'
'painter_'
'wars_'
'End_'
'employ_'
'staring_'
'refer_'
'Has_'
'pleasing_'
'images_'
'poison_'
'fragments_'
'secretary_'
'Surely_'
'Edition_'
'remainder_'
'cells_'
'forests_'
'shooting_'
'rings_'
'foe_'
'ties_'
'intellect_'
'correspondence_'
'childhood_'
'clergy_'
', =_'
'consisting_'
'yonder_'
'Kate_'
'Ruth_'
'jealous_'
'Edinburgh_'
'changing_'
'sunk_'
'stomach_'
'available_'
'improved_'
'descent_'
'calculated_'
'farewell_'
'Water_'
'model_'
'vengeance_'
'thread_'
'wounds_'
'Ye_'
'universe_'
'abundant_'
'61_'
'ae_'
'mail_'
'lit_'
'confused_'
'Egyptian_'
'site_'
'Monday_'
'districts_'
'plot_'
'74_'
'judges_'
'based_'
'moderate_'
'giant_'
'roar_'
'promptly_'
'alarmed_'
'combination_'
'citizen_'
'silently_'
'president_'
'Four_'
'string_'
'ashes_'
'certainty_'
'SIGMA_'
'boxes_'
'viz_'
'stores_'
'gown_'
'TAU_'
'occupy_'
'Out_'
'Wales_'
'reserve_'
'indifference_'
'ting_'
'handkerchief_'
'66_'
'fancied_'
'calmly_'
'visits_'
'Whatever_'
'missed_'
'Should_'
'--'_'
'Could_'
'illness_'
'comrades_'
'designed_'
'fashioned_'
'None_'
'sailor_'
'Project_'
'150_'
'.'"_'
'conceive_'
'.\u]_'
'sore_'
'chairs_'
'pressing_'
'blows_'
'ft_'
'Place_'
'weapon_'
'neglect_'
'altered_'
'submit_'
'placing_'
'stupid_'
'eminent_'
'reckon_'
'payment_'
'arrest_'
'Ay_'
'realize_'
'gracious_'
'strictly_'
'colors_'
'Japanese_'
'ot_'
'advancing_'
'prevailed_'
'sadly_'
'cannon_'
'seats_'
'Finally_'
'fix_'
'merchants_'
'organ_'
'Ohio_'
'pious_'
'nephew_'
'sailors_'
'Berlin_'
'peaceful_'
'commanding_'
'hunger_'
'cart_'
'infantry_'
'attractive_'
'deemed_'
'canoe_'
'loaded_'
'recognize_'
'temporary_'
'confession_'
'heartily_'
'Austria_'
'pleasures_'
'assigned_'
'bath_'
'glow_'
'healthy_'
'invention_'
'colonies_'
'tight_'
'liberal_'
'li_'
'advised_'
'amused_'
'annual_'
'desirable_'
'Cambridge_'
'Eastern_'
'Home_'
'gesture_'
'wilderness_'
'linen_'
'unlike_'
'determine_'
'California_'
'inevitable_'
'injured_'
'Revolution_'
'rum_'
'shield_'
'Chicago_'
'Post_'
'absorbed_'
'salvation_'
'purchased_'
'Note_'
'jest_'
'smoking_'
'border_'
'flashed_'
'Alas_'
'wheat_'
'mild_'
'counted_'
'gravely_'
'tremendous_'
'brush_'
'Pacific_'
'72_'
'bitterly_'
'County_'
'resources_'
'Gospel_'
'Jacob_'
'sets_'
'fence_'
'knights_'
'Divine_'
'representative_'
'pretended_'
'shout_'
'und_'
'witnesses_'
'mist_'
'68_'
'purely_'
'Countess_'
'romantic_'
'69_'
'upright_'
'palm_'
'arguments_'
'breathing_'
'ell_'
'discharge_'
'dearest_'
'flies_'
'obeyed_'
'vanity_'
'ample_'
'remedy_'
'traveller_'
'hiding_'
'ore_'
'XI_'
'protected_'
'glasses_'
'Early_'
'indicate_'
'saints_'
'Venice_'
'major_'
'conquered_'
'saving_'
'Andrew_'
'designs_'
'\u: _'
'upward_'
'spots_'
'angle_'
'scorn_'
'wandered_'
'67_'
'propose_'
'tube_'
'swiftly_'
'recover_'
'fore_'
'discussed_'
'FROM_'
'disgrace_'
'yielded_'
'sincere_'
'springs_'
'heels_'
'Providence_'
'map_'
'bred_'
'85_'
'"; _'
'renewed_'
'Saxon_'
'sketch_'
'block_'
'silly_'
'generations_'
'ashore_'
'weeping_'
'Betty_'
'garments_'
'confessed_'
'effective_'
'fairy_'
'dashed_'
'deceived_'
'recognition_'
'trusted_'
'ler_'
'conquest_'
'meantime_'
'errors_'
'strangely_'
'stuck_'
'conspicuous_'
'XIV_'
'represents_'
'defeated_'
'curse_'
'rod_'
'illustrated_'
'cunning_'
'stolen_'
'esteem_'
'repose_'
'wrapped_'
'specially_'
'jealousy_'
'murdered_'
'trembled_'
'Museum_'
'."--\u_'
'newspapers_'
'assembly_'
'floating_'
'          _'
'statue_'
'chase_'
'cheap_'
'roused_'
'ridiculous_'
'lasted_'
'. (\u_'
'corresponding_'
'favourable_'
'publication_'
'Jackson_'
'reverence_'
'6d_'
'extending_'
'stole_'
'longing_'
'producing_'
'resemblance_'
'therein_'
'specimen_'
'Atlantic_'
'closing_'
'Protestant_'
'edges_'
'stable_'
'liquid_'
'sickness_'
'speedily_'
'neighbours_'
'ri_'
'strict_'
'contract_'
'reminded_'
'unity_'
'goin_'
'intend_'
'Admiral_'
'machinery_'
'sunset_'
'upwards_'
'expenses_'
'Gen_'
'puts_'
'traces_'
'IS_'
'elegant_'
'ghost_'
'amusing_'
'tragedy_'
'76_'
'joke_'
'recalled_'
'monarch_'
'artistic_'
'management_'
'easier_'
'cream_'
'climbed_'
'contest_'
'heir_'
'Phil_'
'careless_'
'travelled_'
'clad_'
'71_'
'leisure_'
'erect_'
'admired_'
'swung_'
'abundance_'
'professional_'
'assurance_'
'Esq_'
'Gutenberg_'
'adventures_'
'limit_'
'brick_'
'Something_'
'trap_'
'bars_'
']._'
'illustration_'
'io_'
'conveyed_'
'driver_'
'spell_'
'aroused_'
'widely_'
'betrayed_'
'teachers_'
'heavenly_'
'Journal_'
' -- _'
'... _'
'charges_'
'talent_'
'nigh_'
'abruptly_'
'lowest_'
'lovers_'
'apple_'
'Republic_'
'nobles_'
'77_'
'passionate_'
'newly_'
'73_'
'bestowed_'
'nd_'
'seeds_'
'liable_'
'78_'
'cheer_'
'warned_'
'eldest_'
'era_'
'ancestors_'
'adapted_'
'motor_'
'arch_'
'severely_'
'reserved_'
'seal_'
'Carolina_'
'hint_'
'Massachusetts_'
'crowned_'
'Central_'
'alas_'
'lip_'
'wake_'
'temples_'
'81_'
'extend_'
'prayed_'
'park_'
'witnessed_'
'dispute_'
'hither_'
'emotions_'
'flowing_'
'acknowledge_'
'Wood_'
'pin_'
'Polly_'
'120_'
'Five_'
'bands_'
'center_'
'discourse_'
'toil_'
'translated_'
'ti_'
'joint_'
'suspended_'
'Marquis_'
'copies_'
'dangers_'
'ward_'
'organs_'
'anxiously_'
'artificial_'
'keeper_'
'converted_'
'saint_'
'Mississippi_'
'breadth_'
'log_'
'insects_'
'returns_'
'subsequently_'
'Instead_'
'Everything_'
'Light_'
'tax_'
'Cardinal_'
'earthly_'
'answers_'
'promises_'
'neighborhood_'
'ex_'
'sink_'
'folded_'
'infant_'
'dramatic_'
'Cf_'
'manifest_'
'modest_'
'bury_'
'justified_'
'Gray_'
'philosopher_'
'responded_'
'perpetual_'
'Wilson_'
'owned_'
'peasant_'
'mainly_'
'NEW_'
'moonlight_'
'deserve_'
'del_'
'dwelt_'
'particulars_'
'unpleasant_'
'Norman_'
'rushing_'
'income_'
'Islands_'
'cal_'
'Sun_'
'formal_'
'doorway_'
'exercised_'
'struggling_'
'provision_'
'sphere_'
'minor_'
'protest_'
'im_'
'chances_'
'82_'
'gallery_'
'hopeless_'
'prophet_'
'questioned_'
'puzzled_'
'encouraged_'
'Hist_'
'95_'
'parting_'
'vicinity_'
']. _'
'impatient_'
'pitch_'
'Orleans_'
'invariably_'
'veins_'
'hesitation_'
'warmth_'
'cares_'
'fortunes_'
'XII_'
'formidable_'
'tons_'
'commands_'
'. =_'
'stopping_'
'probability_'
'ces_'
'professor_'
'dealing_'
'84_'
'sources_'
'79_'
'walks_'
'lace_'
'inquire_'
'crimson_'
'shirt_'
'furious_'
'id_'
', $_'
'pupils_'
'Testament_'
'continent_'
'Pierre_'
'wept_'
'thirteen_'
'declined_'
'mines_'
'luxury_'
'justly_'
'fro_'
'interval_'
'divisions_'
'ale_'
'spared_'
'tic_'
'countrymen_'
'Author_'
'practised_'
'anchor_'
'vulgar_'
'rescue_'
'bills_'
'pit_'
'fetch_'
'killing_'
'reproach_'
'heroic_'
'ner_'
'interfere_'
'frontier_'
'varieties_'
'           _'
'investigation_'
'affections_'
'canal_'
'abode_'
'pursue_'
'cruelty_'
'convent_'
'association_'
'differences_'
'attacks_'
'deprived_'
'organized_'
'gladly_'
'Hebrew_'
'awakened_'
'believing_'
'revelation_'
'scarlet_'
'Justice_'
'naval_'
'estimate_'
'adds_'
'whip_'
'83_'
'avoided_'
'missing_'
'openly_'
'lords_'
'beer_'
'assisted_'
'sailing_'
'agreement_'
'depart_'
'flushed_'
'balls_'
'retire_'
'inform_'
'Hamilton_'
'seize_'
'Oliver_'
'travellers_'
'restore_'
'sufferings_'
'che_'
'plunged_'
'affectionate_'
'experiences_'
'quit_'
'wont_'
'periods_'
'carved_'
'retain_'
'climb_'
'landscape_'
'Daniel_'
'stem_'
'nonsense_'
'guards_'
'waist_'
'pl_'
'positions_'
'representation_'
'Lawrence_'
'dreamed_'
'savages_'
'channel_'
'Turkish_'
'rows_'
'ist_'
'corners_'
'restless_'
'shouldn_'
'96_'
'Till_'
'ingly_'
'contented_'
'jewels_'
'nes_'
'pupil_'
'bench_'
'boldly_'
'editor_'
'quantities_'
'amidst_'
'Luther_'
'Fox_'
'representing_'
'Over_'
'meetings_'
'unnecessary_'
'recommended_'
'normal_'
'drama_'
'agitation_'
'Jew_'
'judged_'
'Peace_'
'Put_'
'│_'
'penny_'
'pan_'
'peril_'
'Gordon_'
'Ibid_'
'obscure_'
'mechanical_'
'Right_'
'wi_'
'~, \u_'
'relating_'
'ish_'
'curtain_'
'recollection_'
'leaped_'
'inspiration_'
'youthful_'
'replaced_'
'Within_'
'invisible_'
'blew_'
'bloody_'
'print_'
'disagreeable_'
'selfish_'
'crushed_'
'shops_'
'Much_'
'vivid_'
'88_'
'tops_'
'ze_'
'learnt_'
'Commons_'
'cathedral_'
'stretch_'
'artists_'
'pistol_'
'irregular_'
'Head_'
'Down_'
'cy_'
'attributed_'
'92_'
'speaker_'
'DE_'
'glimpse_'
'bee_'
'letting_'
'orange_'
'Laura_'
'sails_'
'4th_'
'91_'
'describes_'
'Albert_'
'stirring_'
'suited_'
'dated_'
'traced_'
'boiled_'
'induce_'
'rice_'
'Club_'
'doctrines_'
'skins_'
'selection_'
'marvellous_'
'liquor_'
'bend_'
'halted_'
'sixth_'
'ments_'
'belt_'
'doubts_'
'posts_'
'fitting_'
'awoke_'
'honey_'
'dense_'
'sed_'
'86_'
'stately_'
'cliff_'
'87_'
'Point_'
'Japan_'
'boards_'
'Duchess_'
'meanwhile_'
'drowned_'
'MRS_'
'mob_'
'Library_'
'separation_'
'Half_'
'jury_'
'delicious_'
'Franklin_'
'purse_'
'Faith_'
'asserted_'
'Lewis_'
'appropriate_'
'Anna_'
'ent_'
'pockets_'
'declaration_'
'grim_'
'rebellion_'
'filling_'
'Mademoiselle_'
'solitude_'
'Athens_'
'victims_'
'measured_'
'Fred_'
'rocky_'
'mothers_'
'sung_'
'circular_'
'muscles_'
'seconds_'
'differ_'
'francs_'
'gs_'
'hereafter_'
'vital_'
'Night_'
'battery_'
'privileges_'
'admire_'
'par_'
'expressions_'
'hunter_'
'lads_'
'wealthy_'
'significance_'
'spectacle_'
'Herbert_'
'wilt_'
'happily_'
'blank_'
'embrace_'
'Dorothy_'
'morality_'
'Make_'
'AL_'
', [_'
'trifle_'
'Times_'
'undertake_'
'rejected_'
'continuous_'
'temptation_'
'93_'
' "\u_'
'monks_'
'punished_'
'partner_'
'89_'
'requested_'
'parent_'
'agents_'
'Simon_'
'Persian_'
'mirror_'
'endeavoured_'
'. ‘_'
'file_'
'warrant_'
'Abraham_'
'tt_'
'dollar_'
'ks_'
'wishing_'
'sustained_'
'outline_'
'appetite_'
'expecting_'
'99_'
'charms_'
'., \u_'
'landlord_'
'faded_'
'wool_'
'serving_'
'hearty_'
'faculty_'
'gravity_'
'glowing_'
'sticks_'
'heroes_'
'endless_'
'thief_'
'."--_'
'wolf_'
'introduce_'
'maybe_'
'courtesy_'
'elaborate_'
'Imperial_'
'Col_'
'guarded_'
'towers_'
'push_'
'impressions_'
'proposal_'
'heights_'
'Luke_'
'harbour_'
'version_'
'Order_'
'Think_'
'motionless_'
'compare_'
'MAN_'
'Enter_'
'98_'
'AS_'
'neat_'
'crimes_'
'neighbouring_'
'sinking_'
'encounter_'
'Tower_'
'ess_'
'Westminster_'
'opera_'
'blown_'
'smallest_'
'Palace_'
'willingly_'
'madam_'
'collar_'
'accomplish_'
'endeavour_'
'Between_'
'guilt_'
'purity_'
'ecclesiastical_'
'vols_'
'convey_'
'dine_'
'Scotch_'
'carries_'
'withdrew_'
'Madam_'
'            _'
'innocence_'
'Lane_'
'Friday_'
'loyal_'
'sober_'
'XIII_'
'94_'
'honourable_'
'knock_'
'Get_'
'Please_'
'97_'
'damp_'
'legend_'
'Hope_'
'regularly_'
'submitted_'
'abandon_'
'amazement_'
'violently_'
'strongest_'
'fold_'
'Part_'
'influences_'
'ix_'
'elevation_'
'mount_'
'procure_'
'clasped_'
'Ellen_'
'tore_'
'2nd_'
'Valley_'
'rail_'
'likes_'
'valleys_'
'cake_'
'invented_'
'ya_'
'fortress_'
'costume_'
'chains_'
'literally_'
'expectation_'
'Catherine_'
'treasures_'
'surprising_'
',”_'
'latest_'
'reasoning_'
'lean_'
'obtaining_'
'observing_'
'.’ _'
'fiery_'
'cultivation_'
'ds_'
'successfully_'
'visiting_'
'intent_'
'consented_'
'seeming_'
'scenery_'
'Sarah_'
'insult_'
'imperial_'
'conclude_'
'dealt_'
'approved_'
'curiously_'
'saith_'
'torture_'
'qu_'
'shillings_'
'velvet_'
'accordance_'
'steal_'
'Taylor_'
'ms_'
'Plato_'
'greatness_'
'monument_'
'dat_'
'forbidden_'
'offers_'
'rejoined_'
'shared_'
'pretend_'
'neighbors_'
'sweep_'
'] "_'
'apparatus_'
'Matt_'
'functions_'
'brook_'
'talents_'
'sermon_'
'lucky_'
'fortnight_'
'vii_'
'jump_'
'Third_'
'chimney_'
'ascertain_'
'continues_'
'surgeon_'
'welfare_'
'Brother_'
'whither_'
'secretly_'
'fountain_'
'pattern_'
'searching_'
'inquiries_'
'fer_'
'hoping_'
'blowing_'
'winding_'
'officials_'
'manufacture_'
'remembrance_'
'horns_'
'piano_'
'             _'
'antiquity_'
'incidents_'
'asks_'
'response_'
'foul_'
'anguish_'
'.  '_'
'warrior_'
'symptoms_'
'LE_'
'clothed_'
'Town_'
'Blue_'
'affect_'
'faults_'
'canvas_'
'nerve_'
'occurrence_'
'Last_'
'facing_'
'illustrations_'
'merits_'
'architecture_'
'miracle_'
'\u{_'
'defined_'
'Pennsylvania_'
'Women_'
'characteristics_'
'Me_'
'Horace_'
'imposed_'
'innumerable_'
'procured_'
'breathed_'
'sensitive_'
'Santa_'
'reform_'
'statements_'
'incapable_'
'encountered_'
'arrow_'
'adopt_'
'Francisco_'
'memories_'
'prejudice_'
'Alfred_'
'inscription_'
'theirs_'
'thorough_'
'greeted_'
'possesses_'
'Richmond_'
'. & _'
'ro_'
'alliance_'
'excess_'
'Lords_'
'Ann_'
'upstairs_'
'shouting_'
'games_'
'distributed_'
'dismissed_'
'waved_'
'solemnly_'
'doubted_'
'disciples_'
'***_'
'communicated_'
'persuade_'
'eloquence_'
'respective_'
'grandmother_'
'sheets_'
'footsteps_'
'Earth_'
'ins_'
'envy_'
'Illustrated_'
'110_'
'prices_'
'personally_'
'nobility_'
'tempted_'
'fatigue_'
'spreading_'
'awe_'
'hay_'
'ending_'
'injustice_'
'flock_'
'Letters_'
'ga_'
'MY_'
'civilized_'
'wasted_'
'genus_'
'400_'
'apprehension_'
'Missouri_'
'threatening_'
'aboard_'
'oldest_'
'loudly_'
'assault_'
'extremity_'
'SIR_'
'wax_'
'languages_'
'twilight_'
'dies_'
'relatives_'
'amiable_'
'destiny_'
'Woman_'
'despite_'
'breathe_'
'Susan_'
'Jan_'
'evils_'
'Letter_'
'elevated_'
'madness_'
'Grey_'
'longed_'
'monster_'
'descend_'
'guessed_'
'confident_'
'sunlight_'
'marching_'
'backward_'
'Turks_'
'Sec_'
'humor_'
'document_'
'appreciate_'
'Ch_'
'Julia_'
'deserved_'
'relieve_'
'Assembly_'
'inclination_'
'totally_'
'tents_'
'immortal_'
'tribute_'
'enters_'
'positively_'
'Nicholas_'
'Ten_'
'bending_'
'regiments_'
'raw_'
'project_'
'stricken_'
'backs_'
'spear_'
'unworthy_'
'African_'
'shaft_'
'produces_'
'dependent_'
'relate_'
'polished_'
'complaint_'
'Herr_'
','_'
'admission_'
'termed_'
'lane_'
'Far_'
'rightly_'
'offended_'
'contributed_'
'lowered_'
'Vienna_'
'thirst_'
'owners_'
'LORD_'
'fox_'
'neighbour_'
'lend_'
'shaken_'
'discharged_'
'successive_'
'Jerry_'
'Solomon_'
'Square_'
'lordship_'
'waving_'
'Archbishop_'
'lots_'
'Suppose_'
'unfortunately_'
'funny_'
'yourselves_'
'harsh_'
'--" _'
'swords_'
'lin_'
'accurate_'
'crisis_'
'beautifully_'
'Department_'
'lunch_'
'Ha_'
'mid_'
'seventh_'
'complain_'
'bishops_'
'shine_'
'ink_'
'favorable_'
'Naples_'
'bedroom_'
'advise_'
'.=--_'
'ornaments_'
'niece_'
'105_'
'opportunities_'
'documents_'
'superiority_'
'globe_'
'Portuguese_'
'cars_'
'missionary_'
'counter_'
'arrange_'
'needle_'
'creek_'
'enclosed_'
'Board_'
'hasty_'
'murmur_'
'ardent_'
'preached_'
'pool_'
'smart_'
'adjoining_'
'economy_'
'Williams_'
'transferred_'
'impatience_'
'intentions_'
'exchanged_'
'woe_'
'addressing_'
'Charlotte_'
'cock_'
'mansion_'
'uneasy_'
'frozen_'
'harvest_'
'secrets_'
'smiles_'
'Scripture_'
'estates_'
'Australia_'
'pulling_'
'sits_'
'lap_'
'perish_'
'commit_'
'catching_'
'arrows_'
'thoughtful_'
'scholar_'
'Port_'
'Messrs_'
'seventeen_'
'release_'
'collect_'
'surroundings_'
'XV_'
'distribution_'
'manuscript_'
'Constantinople_'
'lodge_'
'Squire_'
'briefly_'
'ladder_'
'fashionable_'
'caution_'
'circles_'
'Hotel_'
' £_'
'bitterness_'
'possessions_'
'Am_'
'enjoying_'
'Anthony_'
'proceeds_'
'checked_'
'Illustrations_'
'Price_'
'desirous_'
'HIS_'
'faculties_'
'Virgin_'
'polite_'
'bodily_'
'ray_'
'representatives_'
'shallow_'
'exciting_'
'Bell_'
'weep_'
'\u," _'
'dumb_'
'hospitality_'
'Gilbert_'
'proofs_'
'thanked_'
'bargain_'
'ascended_'
'illustrious_'
'avail_'
'viii_'
'manager_'
'cigar_'
'Bridge_'
'heed_'
'types_'
'paths_'
'borrowed_'
'packed_'
'warn_'
'dropping_'
'fare_'
'bullet_'
'unjust_'
'released_'
'ir_'
'invasion_'
'melted_'
'fundamental_'
'Victoria_'
'protested_'
'Murray_'
'peasants_'
'traditions_'
'entertainment_'
'bloom_'
'Adams_'
'workmen_'
'Fanny_'
'diseases_'
'boil_'
'hideous_'
'beef_'
'appearing_'
'background_'
'Creek_'
'Scottish_'
'ou_'
'porch_'
'worry_'
'duly_'
'plane_'
'MR_'
'create_'
'riches_'
'resort_'
'lined_'
'gilt_'
'sm_'
'rebels_'
'disgust_'
'subtle_'
'essentially_'
'bronze_'
'Byron_'
'answering_'
'potatoes_'
'Academy_'
'assertion_'
'proves_'
'sofa_'
'imitation_'
'gleam_'
'planned_'
'decent_'
'130_'
'ST_'
'              _'
'allies_'
'5th_'
'clergyman_'
'owed_'
'consist_'
'resembling_'
'bet_'
'stages_'
'interpretation_'
'leap_'
'barn_'
'ho_'
'contrived_'
'Mass_'
'.-_'
'tend_'
'bus_'
'products_'
'Middle_'
'gigantic_'
'properties_'
'Accordingly_'
'danced_'
'robbed_'
'notions_'
'varying_'
'washing_'
'Knight_'
'realm_'
'dislike_'
''-_'
'attending_'
'clung_'
'evolution_'
'feeding_'
'abuse_'
'Science_'
'disturb_'
'Bank_'
'frightful_'
'Hudson_'
'revenue_'
'Milton_'
'speeches_'
'dishes_'
'cheese_'
'Association_'
'strife_'
'guardian_'
'removal_'
'heathen_'
'product_'
'Road_'
'select_'
'ue_'
'unwilling_'
'threshold_'
'gospel_'
'superstition_'
'farmers_'
'deposited_'
'bowl_'
'justify_'
'spoil_'
'frank_'
'Hon_'
'instructed_'
'vegetable_'
'cheerfully_'
'Saviour_'
'navy_'
'proclaimed_'
'scholars_'
'twisted_'
'disaster_'
'jolly_'
'125_'
'.\u] _'
'decidedly_'
'consolation_'
'stained_'
'Plate_'
'Prussia_'
'250_'
'ascertained_'
'successor_'
'bees_'
'repair_'
'substances_'
'lifting_'
',--"_'
'sub_'
'couch_'
'leagues_'
'ive_'
'combat_'
'140_'
'pig_'
'Works_'
'Golden_'
'dates_'
'dug_'
'awaiting_'
'personality_'
'retorted_'
'preaching_'
'historian_'
'|   _'
'margin_'
'Maurice_'
'brigade_'
'echoed_'
'XVI_'
'attachment_'
'corpse_'
'stake_'
'hen_'
'discuss_'
'Homer_'
'104_'
'printing_'
'ceremonies_'
'respected_'
'suspicious_'
'Eve_'
'adorned_'
'Barbara_'
'carpet_'
'plague_'
'fulfilled_'
'pipes_'
'curtains_'
'preacher_'
'bits_'
'processes_'
'supposing_'
'snake_'
'undertaking_'
'horrid_'
'lakes_'
'juice_'
'session_'
'decline_'
'preach_'
'lamps_'
'proportions_'
'lantern_'
'coin_'
'subdued_'
'divide_'
'fertile_'
'tools_'
'hesitate_'
'  | _'
'cooking_'
'presume_'
'pencil_'
'corrected_'
'exclusively_'
'Kings_'
'everyone_'
'Moore_'
'Twenty_'
'pa_'
'Mexican_'
'swell_'
'fog_'
'laden_'
'insist_'
'traffic_'
'governed_'
'ornament_'
'battles_'
'Agnes_'
'ver_'
'barely_'
'Boy_'
'blade_'
'brute_'
'subjected_'
'defended_'
'lent_'
'Pray_'
'allowing_'
'heated_'
'function_'
'une_'
'manly_'
'commencement_'
'101_'
'readiness_'
'gang_'
'engineer_'
'helping_'
'foliage_'
'maker_'
'horseback_'
'dreary_'
'swore_'
'”_'
'stove_'
'apartments_'
'boast_'
'serpent_'
'attain_'
'PSILI_'
'], \u_'
'Fire_'
'preceded_'
'Juan_'
'Country_'
'desolate_'
'quaint_'
'.   _'
'Clara_'
'awkward_'
'staying_'
'guided_'
'grasped_'
'crop_'
'160_'
'j_'
'essence_'
'peculiarly_'
'\u). _'
'inward_'
'rounded_'
'Keep_'
'.= \u_'
'prudent_'
'\u."_'
'holiday_'
'convention_'
'102_'
'robe_'
'herd_'
'Upper_'
'ammunition_'
'tossed_'
'identical_'
'frankly_'
'receives_'
'decay_'
'dresses_'
'lodging_'
'enthusiastic_'
'sublime_'
'damage_'
'cliffs_'
'wreck_'
'Frenchman_'
'trifling_'
'negative_'
'Public_'
'glittering_'
'tidings_'
'ingenious_'
'basin_'
'sections_'
'cord_'
'rebel_'
'partially_'
'115_'
'gasped_'
'foes_'
'. _'
'Story_'
'rests_'
'preservation_'
'ruled_'
'----, _'
'warfare_'
'sweetness_'
'encouragement_'
'harbor_'
'ninety_'
'principally_'
'workers_'
'   |_'
'equivalent_'
'engage_'
'pint_'
'103_'
'mourning_'
'assert_'
'dignified_'
'delicacy_'
'pillow_'
'anticipated_'
'brains_'
'thorn_'
'escort_'
'eagerness_'
'Edith_'
'casting_'
'bonds_'
'depended_'
'pre_'
'Remember_'
'nowhere_'
'worldly_'
'customary_'
'petition_'
'Isaac_'
'awhile_'
'struggled_'
'sprung_'
'semi_'
'Highness_'
'Children_'
'106_'
'studying_'
'problems_'
'108_'
'Devil_'
'>, _'
'lime_'
'succeeding_'
'obligation_'
'ministry_'
'westward_'
'examining_'
'recollect_'
'Stuart_'
'fiercely_'
'Catholics_'
'deliberately_'
'yo_'
'goddess_'
'magistrate_'
'reverse_'
'yn_'
'ambitious_'
'perished_'
'112_'
'monk_'
'sworn_'
'comprehend_'
'Above_'
'festival_'
'baggage_'
'chorus_'
'locks_'
'Later_'
'complained_'
'significant_'
'declaring_'
'timid_'
'crest_'
'Robin_'
'animated_'
'carriages_'
'shouts_'
'specific_'
'Abbey_'
'wonderfully_'
'reaches_'
'Guy_'
'whistle_'
'bounds_'
'fluid_'
'petty_'
'Notes_'
'entry_'
'borders_'
'107_'
'truths_'
'tenderly_'
'settlers_'
'Nobody_'
'awaited_'
'cf_'
'inhabited_'
'team_'
'hired_'
'contemporary_'
'seasons_'
'Matthew_'
'Others_'
'ripe_'
'Fair_'
'als_'
'complexion_'
'Canadian_'
'haue_'
'eventually_'
'withdraw_'
'Douglas_'
'decorated_'
'excellence_'
'embraced_'
'constituted_'
'angrily_'
'Free_'
'soup_'
'Power_'
'congregation_'
'venerable_'
'rejoice_'
'someone_'
'barrel_'
'omitted_'
'betray_'
'sts_'
'Probably_'
'comment_'
'compass_'
'Acts_'
'doctors_'
'dreaded_'
'loyalty_'
'labours_'
'6th_'
'pony_'
'dale_'
'bows_'
'Stone_'
'neighbor_'
'tongues_'
'approval_'
'dew_'
'occasioned_'
'               _'
'skies_'
'lecture_'
'applause_'
'.(_'
'terribly_'
'disguise_'
'consulted_'
'frost_'
'excite_'
'covers_'
'solely_'
'Sabbath_'
'virtuous_'
'exhibit_'
'Davis_'
'acute_'
'113_'
'nce_'
'ow_'
'adj_'
'stamp_'
'rubbed_'
'Wait_'
'allied_'
'suppressed_'
'* _'
'cups_'
'Charlie_'
'expressing_'
'decree_'
'agitated_'
'considerations_'
'thankful_'
'deepest_'
'faithfully_'
'109_'
'sunny_'
'grandeur_'
'Six_'
'Indies_'
'Morgan_'
'entertain_'
'theories_'
'git_'
'wonders_'
'refined_'
'believes_'
'Small_'
'sheer_'
'player_'
'attraction_'
'fain_'
'appreciation_'
'breed_'
'extract_'
'barren_'
'anyhow_'
'causing_'
'conclusions_'
'12mo_'
'sends_'
'tip_'
'diamonds_'
'theme_'
'opens_'
'accord_'
'prolonged_'
'taxes_'
'sergeant_'
'behaviour_'
'lly_'
'lawn_'
'Thursday_'
'exile_'
'impatiently_'
'keys_'
'Austrian_'
'substantial_'
'elbow_'
'alluded_'
'descendants_'
'manifested_'
'axe_'
'chambers_'
'Dublin_'
'inheritance_'
'arriving_'
'constitute_'
'honorable_'
'Mayor_'
'imprisonment_'
'imperfect_'
'undertaken_'
'staircase_'
'Kentucky_'
'punish_'
'Common_'
'suspicions_'
'118_'
'monsieur_'
'partial_'
'spy_'
'hanged_'
'perception_'
'limb_'
'consumed_'
'hurriedly_'
'whites_'
'ium_'
'bite_'
'hunters_'
'burial_'
'.\u) _'
'breaks_'
'childish_'
'promising_'
'warmly_'
'180_'
'reflect_'
'scent_'
'weighed_'
'attempting_'
'deserves_'
'UPSILON_'
'wildly_'
'diamond_'
'cash_'
'haired_'
'tions_'
'Tuesday_'
'hats_'
'attendant_'
'communicate_'
'disorder_'
'brandy_'
'cane_'
'Allen_'
'circulation_'
'attendance_'
'consult_'
'ultimate_'
'sympathetic_'
'lighter_'
'include_'
'earn_'
'faintly_'
'111_'
'Bull_'
'harder_'
'analysis_'
'Cromwell_'
'moves_'
'dash_'
'ringing_'
' '
'Sultan_'
'chemical_'
'improve_'
'fulness_'
'114_'
'117_'
'tune_'
'compliment_'
'  |  _'
'appealed_'
'bundle_'
'blocks_'
'indignant_'
'natured_'
':—_'
'rt_'
'prose_'
'116_'
'infinitely_'
'gale_'
'extension_'
'republic_'
'Year_'
'oppose_'
'captive_'
'strip_'
'mouths_'
'wretch_'
'Howard_'
'remind_'
'piety_'
'Morris_'
'descending_'
'va_'
'rapidity_'
'logical_'
'withdrawn_'
'deceive_'
'Mountain_'
'width_'
'winning_'
'´_'
'penalty_'
'shades_'
'van_'
'shy_'
'1862_'
'comrade_'
'feather_'
'philosophers_'
'poles_'
'peoples_'
'crack_'
'abstract_'
'sur_'
'bond_'
'reveal_'
'ire_'
'swallowed_'
'acquire_'
'strikes_'
'2d_'
'dost_'
'drag_'
'spake_'
'ries_'
'sweeping_'
'primary_'
'pouring_'
'fiction_'
'tricks_'
'vegetables_'
'za_'
'hue_'
'earned_'
'Whose_'
'constitutional_'
'excessive_'
'flowed_'
'discoveries_'
'ba_'
'dreaming_'
'whereby_'
'anyway_'
'Gregory_'
'cabinet_'
'knelt_'
'Mountains_'
'exceeding_'
'sacrifices_'
'likeness_'
'rational_'
'estimated_'
'Russell_'
'failing_'
'halt_'
'eloquent_'
'wits_'
'glancing_'
'.”[_'
'telegraph_'
'pepper_'
'engines_'
'Quite_'
'foremost_'
'cows_'
'mysteries_'
'135_'
'prime_'
'angles_'
';[_'
'119_'
'hearth_'
'ultimately_'
'errand_'
'spectators_'
'youngest_'
'floated_'
'bulk_'
'manhood_'
'costly_'
'hook_'
'Englishmen_'
'rigid_'
'symbol_'
'treason_'
'cooked_'
'Rue_'
'strings_'
'accuracy_'
'Campbell_'
'ceiling_'
''--_'
'1864_'
'remarkably_'
'10th_'
'identity_'
'obviously_'
'://_'
'debts_'
'ying_'
'Horse_'
'breach_'
'lla_'
'aux_'
'unite_'
'despised_'
'phenomenon_'
'latitude_'
'Bacon_'
'legislation_'
'drift_'
'15th_'
'develop_'
'shoe_'
'bewildered_'
'trials_'
'faster_'
'WILLIAM_'
'Antonio_'
'selling_'
'enlarged_'
'ens_'
'convince_'
'Columbus_'
'prosperous_'
'                _'
'severity_'
'lle_'
'defiance_'
'patent_'
'Victor_'
'terrified_'
'uncommon_'
'continual_'
'pushing_'
'deceased_'
'sparkling_'
'Himself_'
'rosy_'
'eagle_'
'dismay_'
'Spring_'
'eighth_'
'Paradise_'
'shorter_'
'dined_'
'candles_'
'prudence_'
'Arab_'
'alleged_'
'repaired_'
'Word_'
'monastery_'
'fools_'
'ations_'
'tte_'
'precise_'
'Satan_'
'", _'
'coats_'
'Arnold_'
'chill_'
'sacrificed_'
'121_'
'sealed_'
'inspection_'
'mer_'
'apples_'
'welcomed_'
'thieves_'
'Capt_'
'endured_'
'cautiously_'
'meadow_'
'trenches_'
'sixteenth_'
'tightly_'
'influenced_'
'financial_'
'Cousin_'
'murderer_'
'massive_'
'cellar_'
'Louise_'
'beam_'
'systems_'
'survey_'
'legitimate_'
'cum_'
'gloves_'
'incredible_'
'recommend_'
'eighteenth_'
'factory_'
'happier_'
'troop_'
'sums_'
'corruption_'
'123_'
'Emily_'
'parliament_'
'Corps_'
'ea_'
'blaze_'
'feminine_'
'greeting_'
'stretching_'
'mix_'
'elephant_'
'Garden_'
'esteemed_'
'philosophical_'
'compound_'
'headquarters_'
'richly_'
'Harold_'
'Rock_'
'7th_'
'triumphant_'
'supporting_'
'wider_'
'objections_'
'tyranny_'
'declares_'
'ves_'
'indispensable_'
'\u] _'
'storms_'
'swim_'
'bags_'
'Cook_'
'quote_'
'refusal_'
'typical_'
'reckoned_'
'searched_'
'cakes_'
'assistant_'
'uncomfortable_'
'haunted_'
'clearing_'
'ez_'
'endowed_'
'sandy_'
'Aristotle_'
'exalted_'
'morals_'
'Report_'
'treachery_'
'18th_'
'ruler_'
'compact_'
'bunch_'
'climbing_'
'Field_'
'ass_'
'boundary_'
'Sally_'
'attendants_'
'122_'
'grove_'
'Listen_'
'unseen_'
'debate_'
'earl_'
'145_'
'tastes_'
'joyous_'
'expensive_'
'tracks_'
'126_'
'ib_'
'Dave_'
'vacant_'
'Bonaparte_'
'detailed_'
'Jimmy_'
'organic_'
'dans_'
'funds_'
'resigned_'
'worm_'
'temperament_'
'124_'
'tread_'
'thickness_'
'ary_'
'ngs_'
'exercises_'
'discretion_'
'concert_'
'offensive_'
'sentences_'
'170_'
'attract_'
'berg_'
'Thee_'
'diminished_'
'hurrying_'
'tenth_'
'terrace_'
'cab_'
'everlasting_'
'Wednesday_'
'patients_'
'blessings_'
'129_'
'ports_'
'exclusive_'
'arising_'
'encourage_'
'resemble_'
'128_'
'disposal_'
'recognise_'
'split_'
'miracles_'
'alter_'
'indebted_'
'isolated_'
'Russians_'
'inserted_'
'exhibition_'
'Illinois_'
'alongside_'
'nails_'
'sincerity_'
'Kitty_'
'persecution_'
'127_'
'oppressed_'
'cited_'
'submission_'
'LL_'
'skull_'
'supernatural_'
'pleasantly_'
'proprietor_'
'securing_'
'Gothic_'
'133_'
'monuments_'
'ory_'
'Portugal_'
'ger_'
'cursed_'
'allowance_'
'lungs_'
'generosity_'
'Nile_'
'hammer_'
'intensity_'
' _'
'bidding_'
'dissolved_'
'detected_'
'Kent_'
'draught_'
'conference_'
'controversy_'
'Chancellor_'
'allusion_'
'squire_'
'propriety_'
'Nancy_'
'ς_'
'reckless_'
'wander_'
'Produced_'
'profits_'
'hasn_'
'fearing_'
'disappear_'
'tus_'
'Clark_'
'creed_'
'arches_'
'associations_'
'Almighty_'
'robes_'
'resulted_'
'eternity_'
'blush_'
'jurisdiction_'
'Venus_'
'praised_'
'Truth_'
'bottles_'
'trains_'
'FINAL_'
'honoured_'
'dominion_'
'compassion_'
'Seven_'
'forgetting_'
'poetic_'
'machines_'
'DEAR_'
'kindred_'
'vile_'
'Nelson_'
'Z_'
'pas_'
'players_'
'132_'
'onward_'
'Graham_'
'startling_'
'splendour_'
'resolve_'
'Tommy_'
'throng_'
'titles_'
'amazed_'
'slaughter_'
'Dean_'
'realised_'
'Convention_'
'decisive_'
'Senator_'
'university_'
'1861_'
'ny_'
'foreigners_'
'journal_'
'tremble_'
'136_'
'sorrows_'
'reflections_'
'inflicted_'
'preference_'
'Georgia_'
'screen_'
'pierced_'
'review_'
'interference_'
'relates_'
'joys_'
'ance_'
'crops_'
'8th_'
'monstrous_'
'portraits_'
'Religion_'
'Owen_'
':--"_'
'patron_'
'.\u)_'
'stations_'
'armour_'
'Dolly_'
'revolt_'
'144_'
'je_'
'tour_'
'Better_'
'glances_'
'exclamation_'
'downward_'
'fright_'
'porter_'
'brows_'
'access_'
'locality_'
'circuit_'
'hedge_'
'Martha_'
'Soc_'
'Blake_'
'economic_'
'restoration_'
'requisite_'
'cherished_'
'thyself_'
'Fourth_'
'131_'
'reads_'
'generals_'
'victorious_'
'equality_'
'aught_'
'gross_'
'prevail_'
'Big_'
'horsemen_'
'fidelity_'
'beams_'
'objected_'
'Almost_'
'~, _'
'crazy_'
'recovery_'
'139_'
'detached_'
'Molly_'
'prophecy_'
'swing_'
'persisted_'
'righteousness_'
'squadron_'
'presenting_'
'Aug_'
'stealing_'
'VARIA_'
'despatched_'
'ox_'
'Anglo_'
'breeding_'
'profitable_'
'backed_'
'rates_'
'flank_'
'lawful_'
'Gerald_'
'Ferdinand_'
'1870_'
'http_'
'possessing_'
'beauties_'
'                  _'
'mon_'
'ure_'
'revolver_'
'notable_'
'ld_'
'agricultural_'
'vow_'
'substitute_'
'finer_'
'NG_'
'memorable_'
'detective_'
'draws_'
'batteries_'
'shower_'
'Sure_'
'mules_'
'imposing_'
'pope_'
'conquer_'
'finely_'
'Texas_'
'dirt_'
'9th_'
'138_'
'strengthened_'
'137_'
'sadness_'
'moss_'
'extends_'
'resentment_'
'shots_'
'Benjamin_'
'Joan_'
'schemes_'
'behaved_'
'pavement_'
'Ward_'
'ken_'
'swinging_'
'Jupiter_'
'shepherd_'
'parlor_'
'annoyed_'
'reduce_'
'                 _'
'Sergeant_'
'aided_'
'professed_'
'155_'
'                   _'
'pledge_'
'Columbia_'
'1865_'
'whereupon_'
'Cathedral_'
'rider_'
'utterance_'
'improvements_'
'females_'
'stationed_'
'Dec_'
'Near_'
'134_'
'mule_'
'fishes_'
'ragged_'
'ps_'
'complicated_'
'Orange_'
'unconsciously_'
'Robinson_'
'curve_'
'concerns_'
'trousers_'
'secondary_'
'statues_'
'dusk_'
'coffin_'
'token_'
'tragic_'
'folds_'
'Oriental_'
'Review_'
'Percy_'
'M'
'serves_'
'XVIII_'
'contracted_'
'165_'
'observer_'
'repeating_'
'labors_'
'3rd_'
'piled_'
'cage_'
'1863_'
'describing_'
'accounted_'
'; (_'
'141_'
'undertook_'
'witch_'
'upset_'
'Mediterranean_'
'rendering_'
'summons_'
'143_'
'bind_'
'roughly_'
'achieved_'
'ously_'
'imprisoned_'
'prior_'
'Madrid_'
'critics_'
'142_'
'wagons_'
'jacket_'
'honesty_'
'Too_'
'relics_'
'oxen_'
'ite_'
'Gentlemen_'
'competition_'
'meals_'
'prophets_'
'wholesome_'
'suffice_'
'reigned_'
'blanket_'
'Sister_'
'arises_'
'Books_'
'Liverpool_'
'irresistible_'
'radiant_'
'husbands_'
'hypothesis_'
'salary_'
'                    _'
'harmless_'
'echo_'
'haughty_'
'Nov_'
'pleaded_'
'blossoms_'
'Bernard_'
'thoughtfully_'
'ux_'
'bravely_'
'Behold_'
'blast_'
'12th_'
'settlements_'
'sq_'
'ki_'
'foundations_'
'quitted_'
'motions_'
'comparative_'
'pillars_'
'transport_'
'nut_'
'paces_'
'historic_'
'147_'
'emerged_'
'skilful_'
'q_'
'dimensions_'
'Caroline_'
'prairie_'
'14th_'
'xi_'
'flush_'
'flows_'
'astonishing_'
'pond_'
'forbid_'
'shrill_'
'148_'
'Augustus_'
'swallow_'
'challenge_'
'founder_'
',"--_'
'binding_'
'Bruce_'
'indulgence_'
'assent_'
'pitched_'
'strained_'
'trunks_'
'dainty_'
'dedicated_'
'Obs_'
'insect_'
'delayed_'
'patiently_'
'adequate_'
'crowds_'
'classical_'
'SON_'
'universally_'
'twas_'
'FOOTNOTES_'
'16th_'
'visions_'
'restraint_'
'Beyond_'
'Kingdom_'
'posted_'
'beggar_'
'amuse_'
'\u)._'
'Until_'
'Marion_'
'rejoiced_'
'wiser_'
'mantle_'
'overhead_'
'conferred_'
'Friend_'
'146_'
'suggestions_'
'epoch_'
'17th_'
'chapters_'
'pathetic_'
'coldly_'
'offspring_'
'plus_'
'granite_'
'ists_'
'Winter_'
'rites_'
'northward_'
'153_'
'TON_'
'ounces_'
'modified_'
'buffalo_'
'Turkey_'
'blankets_'
'shew_'
'yielding_'
'bly_'
'removing_'
'actor_'
'mo_'
'missionaries_'
'industrial_'
'losses_'
'oft_'
'Annie_'
'Federal_'
'ropes_'
'oz_'
'Ghost_'
'20th_'
'ambassador_'
'Roy_'
'sauce_'
'announcement_'
'tyrant_'
'152_'
'thumb_'
'meadows_'
'drum_'
'definition_'
'mare_'
'device_'
'175_'
'lectures_'
'vigour_'
'carelessly_'
'Civil_'
'patch_'
'theology_'
'Prussian_'
'149_'
'wisely_'
'comfortably_'
'logs_'
'invite_'
'ION_'
'exertion_'
'efficient_'
'schooner_'
'coward_'
'exertions_'
'forthwith_'
'springing_'
'appreciated_'
'cylinder_'
'Scriptures_'
'Isn_'
'Quebec_'
'gradual_'
'fan_'
'favoured_'
'yacht_'
'pilot_'
'dy_'
'hind_'
'strove_'
'lingered_'
'rugged_'
'praying_'
'Cloth_'
'competent_'
'league_'
'Pitt_'
'avenue_'
'ned_'
'161_'
'hears_'
'consistent_'
'KING_'
'                     _'
'oars_'
'garment_'
'gaining_'
'repeatedly_'
'prejudices_'
'proudly_'
'phrases_'
'homage_'
'convenience_'
'13th_'
'doom_'
'surrendered_'
'disturbance_'
'Jefferson_'
'lasting_'
'swimming_'
'chanced_'
'Rachel_'
'Lower_'
'panic_'
'hail_'
'affords_'
'sensations_'
'reaction_'
'Persia_'
'156_'
'touches_'
'agency_'
'choir_'
'olive_'
'Gr_'
'CE_'
'lodged_'
'anti_'
'seq_'
'inherited_'
'picking_'
'hunted_'
'rural_'
'shapes_'
'Hospital_'
'Battle_'
'190_'
'singularly_'
'ai_'
'conspiracy_'
'refers_'
'vexed_'
'Prof_'
'gossip_'
'ac_'
'tract_'
'sincerely_'
'flashing_'
'Butler_'
'hounds_'
'traitor_'
'popularity_'
'meets_'
'Excellency_'
'banished_'
'Mistress_'
'Gold_'
'regulations_'
'elapsed_'
'Marshal_'
'suggests_'
'madame_'
'knot_'
'sway_'
'oven_'
'1850_'
'vary_'
'defense_'
'evenings_'
'ges_'
'pe_'
'mould_'
'malice_'
'honours_'
'await_'
'exposure_'
'effectually_'
'154_'
'op_'
'proclamation_'
'stillness_'
'confounded_'
'deaf_'
'tramp_'
'seventeenth_'
'stare_'
'numbered_'
'Jersey_'
'blazing_'
'nuts_'
'scandal_'
'kneeling_'
'extravagant_'
'clinging_'
'                      _'
'ely_'
'Edmund_'
'Age_'
'descriptions_'
'Felix_'
'wolves_'
'gan_'
'Wellington_'
'prompt_'
'imaginary_'
'1860_'
'revived_'
'invested_'
'spirited_'
'receipt_'
'guidance_'
'hereditary_'
'creeping_'
'Jove_'
'envelope_'
'destroying_'
'barbarous_'
'fantastic_'
'eastward_'
'RHO_'
'deliberate_'
'mirth_'
'XVII_'
'Regiment_'
'158_'
'mask_'
'157_'
'woke_'
'Miller_'
'mustn_'
'Into_'
'shocked_'
'roofs_'
'sheltered_'
'comedy_'
'prospects_'
'Rhine_'
'duration_'
'layer_'
'TH_'
'speculation_'
'southward_'
'Constance_'
'151_'
'nus_'
'elle_'
'bounded_'
'fails_'
'mentions_'
'din_'
'remembering_'
'yon_'
'opponents_'
'1900_'
'mast_'
'lets_'
'ensued_'
'stamped_'
'valued_'
'baptism_'
'bestow_'
'cordial_'
'vine_'
'www_'
'located_'
'destination_'
'refusing_'
'grains_'
'Family_'
'162_'
'electricity_'
'pet_'
'diet_'
'    |_'
'unnatural_'
'resembles_'
'Sept_'
'Confederate_'
'pie_'
'travels_'
'enlightened_'
'Hold_'
'penetrated_'
'ditch_'
'sack_'
'LONDON_'
'600_'
'Cong_'
'counting_'
'rat_'
'Arabs_'
'gh_'
'cured_'
'transparent_'
'ivory_'
'pearls_'
'especial_'
'inland_'
'bursting_'
'gorgeous_'
'Welsh_'
'lazy_'
'168_'
'fortunately_'
'Child_'
'rulers_'
'exaggerated_'
'tiger_'
'hostess_'
'productions_'
'lodgings_'
'Mme_'
'Thames_'
'goat_'
'pursuing_'
'ical_'
'underneath_'
'dearly_'
'167_'
'rifles_'
'Gulf_'
'steward_'
'pots_'
'Gods_'
'excepting_'
'RY_'
'Trinity_'
'attributes_'
'Foreign_'
'telegram_'
'hire_'
'whatsoever_'
'fancies_'
'roaring_'
'Work_'
'concentrated_'
'accompanying_'
'fist_'
'grip_'
'Camp_'
'wa_'
'tempest_'
'canoes_'
'magistrates_'
'Everybody_'
'cuts_'
'roared_'
'stormy_'
'glare_'
'ascribed_'
'poetical_'
'Charley_'
'Bear_'
'shrine_'
'admirably_'
'163_'
'FIRST_'
'Cicero_'
'FN_'
'luncheon_'
'begging_'
'ascent_'
'164_'
'inasmuch_'
'misfortunes_'
'jail_'
'fuel_'
'shrewd_'
'169_'
'domain_'
'militia_'
'                         _'
'                       _'
'Oct_'
'preliminary_'
'argued_'
'GEORGE_'
'despise_'
'Manchester_'
'graves_'
'respectively_'
'logic_'
'Ages_'
'brutal_'
'185_'
'parlour_'
'hood_'
'Max_'
'Patrick_'
'whoever_'
'destitute_'
'Lamb_'
'Pedro_'
'mayor_'
'complaints_'
'quoth_'
'hymn_'
'urge_'
'scales_'
'distances_'
'patriotism_'
'devils_'
'resignation_'
'reins_'
'eminence_'
'complex_'
'ja_'
'approve_'
'doomed_'
'momentary_'
'emphasis_'
'Scots_'
'IT_'
'bleeding_'
'spoiled_'
'contemplation_'
'includes_'
'171_'
'votes_'
'bullets_'
'bonnet_'
'Wallace_'
'Patty_'
'henceforth_'
'planet_'
'honestly_'
'sustain_'
'Andy_'
'Montreal_'
'Magazine_'
'166_'
'expressly_'
'seemingly_'
'sternly_'
'Press_'
'today_'
'tumult_'
'rewarded_'
'horizontal_'
'zed_'
'embarrassment_'
'crosses_'
'Nat_'
', & _'
'ock_'
'continuing_'
'thrill_'
'19th_'
'noisy_'
'159_'
'softened_'
'snatched_'
'Ross_'
'lawyers_'
'176_'
'viewed_'
'Maybe_'
'Fortunately_'
'liking_'
'PERISPOMENI_'
'societies_'
'obstinate_'
',\u _'
'commence_'
'jaws_'
'ster_'
'El_'
'appearances_'
'Thompson_'
'impress_'
'telephone_'
'conversion_'
'acceptance_'
'navigation_'
'dismal_'
'                          _'
'maids_'
'obligations_'
'177_'
'cautious_'
'handled_'
'righteous_'
'assumption_'
'Dame_'
'scanty_'
'keenly_'
'Navy_'
'                        _'
'Fr_'
'ians_'
'aimed_'
'186_'
'dam_'
'needn_'
'BOOK_'
'sciences_'
'downstairs_'
'Babylon_'
'soap_'
'vegetation_'
'publicly_'
'courses_'
'hasten_'
'arisen_'
'Peggy_'
'boughs_'
'ETA_'
'Commission_'
'eve_'
'spending_'
'Forest_'
'apology_'
'jaw_'
'indulge_'
'whereof_'
'breathless_'
'Star_'
'Mars_'
'consumption_'
'brightness_'
'174_'
'ker_'
'paragraph_'
'Allah_'
'energetic_'
'novels_'
'palaces_'
'throws_'
'pays_'
'11th_'
'devote_'
'."]_'
'possibilities_'
'Switzerland_'
'flocks_'
'Burton_'
'hi_'
''. _'
'crystal_'
'cargo_'
'restrain_'
'bridges_'
'villain_'
'sse_'
'barrier_'
'fifteenth_'
'Feb_'
'240_'
'pretence_'
'neighboring_'
'Alexandria_'
'huts_'
'contemplated_'
'humility_'
'louder_'
'jar_'
'scope_'
'generously_'
'Years_'
'intolerable_'
'policeman_'
'doings_'
'indulged_'
'noblest_'
'lamb_'
'Stanley_'
'Eleanor_'
'personage_'
'Division_'
'unusually_'
'waking_'
'exceptions_'
'plunder_'
'Sidney_'
'Esther_'
'stripped_'
'factor_'
'transformed_'
'Isle_'
'annually_'
'pulpit_'
'Petersburg_'
'instincts_'
'torrent_'
'regretted_'
'OLD_'
'cats_'
'Christopher_'
'joining_'
'handful_'
'220_'
'furnace_'
'tooth_'
'ounce_'
'crash_'
'tails_'
'Service_'
'awfully_'
'footing_'
'engraved_'
'Newton_'
'210_'
'seeks_'
'Johnny_'
'MSS_'
'collecting_'
'moisture_'
'ants_'
'178_'
'187_'
'distressed_'
'..._'
'seizing_'
'modesty_'
'rely_'
'ina_'
'renders_'
'Wild_'
'pairs_'
'illustrate_'
'critic_'
'fowl_'
'melody_'
'darker_'
'\u.  _'
'screw_'
'Commander_'
'intimacy_'
'curved_'
'verdict_'
'lions_'
'181_'
'horrors_'
'Jehovah_'
'                           _'
'troublesome_'
'suits_'
'impressive_'
'variations_'
'wan_'
'Things_'
'accent_'
'oppression_'
'administered_'
'lesser_'
'sheriff_'
'paste_'
'ated_'
'acquaintances_'
'alcohol_'
'annoyance_'
'unique_'
'172_'
'voted_'
'expert_'
'lemon_'
'dome_'
'candidate_'
'fascinating_'
'afflicted_'
'sen_'
'ornamented_'
'lb_'
'striving_'
'nobleman_'
'lays_'
'actors_'
'wickedness_'
'tropical_'
'184_'
'tom_'
'wears_'
'nineteenth_'
'discussing_'
'drawings_'
'oo_'
'repetition_'
' |   _'
'humbly_'
'consecrated_'
'vous_'
'warlike_'
'superstitious_'
'ben_'
'Burke_'
'173_'
'identified_'
'advances_'
'struggles_'
'Florida_'
'demonstration_'
'Norfolk_'
'stockings_'
'aren_'
'exceed_'
'patriotic_'
'183_'
'stress_'
'crowns_'
'bigger_'
'bolt_'
'Lily_'
'ribbon_'
'ding_'
'fortified_'
'knives_'
'fits_'
'Roland_'
'stooped_'
'treating_'
'remorse_'
'Ancient_'
'heel_'
'179_'
'182_'
'tly_'
'earnestness_'
'affecting_'
'overwhelmed_'
'govern_'
'photograph_'
'interposed_'
'communion_'
'LY_'
'Lieut_'
'hurled_'
'&_'
'Ocean_'
'192_'
'nts_'
'CO_'
'trading_'
'rubbing_'
'tavern_'
'ol_'
'Turner_'
'mi_'
'groaned_'
'1848_'
'maintenance_'
'thickly_'
'resembled_'
'divers_'
'marrying_'
'Leo_'
'governments_'
'Les_'
'\u;_'
'decoration_'
'Sweet_'
'modes_'
'1880_'
'ash_'
'goal_'
'188_'
'conjecture_'
'shattered_'
'drunken_'
'CHARLES_'
'provincial_'
'framed_'
'prevailing_'
'honored_'
'KAPPA_'
'205_'
'195_'
'193_'
'differently_'
'Spencer_'
'Leave_'
'coolly_'
'Kansas_'
'referring_'
'counties_'
'Table_'
'mann_'
'resisted_'
'fr_'
'tended_'
'backwards_'
'Fortune_'
'supposition_'
'freed_'
'explosion_'
'alert_'
'uncertainty_'
'reared_'
'magnitude_'
'.~ _'
'denial_'
'Duc_'
'mus_'
'vault_'
'oe_'
'Hans_'
'insignificant_'
'gravel_'
'Egyptians_'
'array_'
'quivering_'
'corridor_'
'189_'
'wiped_'
'forgiveness_'
'25th_'
'farms_'
'assuming_'
'vein_'
'LIFE_'
'Looking_'
'Milan_'
'heaps_'
'foam_'
'Rio_'
'ninth_'
'attribute_'
'Il_'
'lacking_'
'191_'
'Boys_'
'parson_'
'dispersed_'
'caps_'
'amounted_'
'." (_'
'clubs_'
'expedient_'
'dig_'
'Darwin_'
'adjacent_'
'settling_'
'voluntary_'
'perilous_'
'tedious_'
'Republican_'
'vices_'
'Mason_'
'!"  _'
'mournful_'
'Dead_'
'Number_'
'cardinal_'
'b'
'Already_'
'berries_'
'statesman_'
'aloft_'
'scared_'
'pearl_'
'void_'
'nineteen_'
'rescued_'
'mess_'
'bliss_'
'housekeeper_'
'° _'
'ram_'
'ingenuity_'
'maidens_'
'Stop_'
'expose_'
'gen_'
'deposit_'
'float_'
'captains_'
'ord_'
'Emma_'
'ther_'
'B'
'toes_'
'weeds_'
'ning_'
'208_'
'Whilst_'
'obstacle_'
'mistakes_'
'treatise_'
'detained_'
'monkey_'
'quest_'
'genial_'
'civilisation_'
'ghastly_'
'obstacles_'
'calamity_'
'Round_'
'compel_'
'shan_'
'Supreme_'
'urgent_'
'Easter_'
'kick_'
'essay_'
'highway_'
'bridle_'
'richest_'
'seamen_'
'physicians_'
'projecting_'
'ante_'
'Rupert_'
'muscular_'
'implied_'
'converse_'
'Must_'
'ribs_'
'sounding_'
'execute_'
'District_'
'wondrous_'
'threads_'
'detachment_'
'prescribed_'
'copied_'
'depression_'
'compensation_'
'Lion_'
'ascending_'
'embarrassed_'
',  _'
'refrain_'
'moist_'
'code_'
'Apollo_'
'212_'
'falsehood_'
'Tennessee_'
'subordinate_'
'crush_'
'Strange_'
'forts_'
'Diana_'
'XIX_'
'Liberty_'
'Infantry_'
'197_'
'commonplace_'
'                            _'
'½_'
'interruption_'
'225_'
'endeavor_'
'fe_'
'202_'
'spark_'
'sullen_'
'sanction_'
'dragon_'
'‭  _'
'Few_'
'flags_'
'fulfil_'
'traders_'
'banquet_'
'bearer_'
'Behind_'
'?" "_'
'Chapel_'
'scream_'
'negotiations_'
'entertaining_'
'ov_'
'providing_'
'afar_'
'Harvey_'
'plunge_'
'phase_'
'NE_'
'Natural_'
'sovereignty_'
'.--"_'
'kisses_'
'darted_'
'darkened_'
'brighter_'
'naught_'
'Saints_'
'230_'
'201_'
'204_'
'oxygen_'
'obedient_'
'exterior_'
'gratified_'
'Ali_'
'worshipped_'
'expressive_'
'lis_'
'Mind_'
'talks_'
'pleases_'
'controlled_'
'posterity_'
'correctly_'
'turf_'
'sexes_'
'ascend_'
'accidents_'
'vaguely_'
'despatch_'
'variation_'
'swelling_'
'growled_'
'currents_'
'intensely_'
'ticket_'
'makers_'
'Friends_'
'vertical_'
'neatly_'
'Janet_'
'admiral_'
'restrained_'
'rejoicing_'
'resided_'
'194_'
'Isabel_'
'Blessed_'
'1898_'
'famine_'
'lighting_'
'judicial_'
'hinder_'
'sleeve_'
'passenger_'
'ette_'
'adoption_'
'robbers_'
'196_'
'costs_'
'Fifth_'
'buying_'
'JAMES_'
'worthless_'
'repentance_'
'ordained_'
'explaining_'
'retreated_'
'dragging_'
'pose_'
'pines_'
'martial_'
'dis_'
'precaution_'
'cradle_'
'Prophet_'
'originated_'
'premises_'
'Harris_'
'editions_'
'3d_'
'violet_'
'tool_'
'spectacles_'
'birthday_'
'judging_'
'corrupt_'
'overwhelming_'
'Notwithstanding_'
'stepping_'
'particles_'
'charter_'
'Warren_'
'Chester_'
'spacious_'
'grieved_'
'tor_'
'                             _'
'qualified_'
'acre_'
'nail_'
'slumber_'
'enforced_'
'separately_'
'invalid_'
'Morton_'
'vainly_'
'penetrate_'
'trumpet_'
'goose_'
'Beatrice_'
'agriculture_'
'Further_'
'halls_'
'Distributed_'
'Sweden_'
'1899_'
'Thanks_'
'technical_'
'skeleton_'
'furiously_'
'sturdy_'
'legislature_'
'ities_'
'embarked_'
'conductor_'
'sands_'
'yoke_'
'vehicle_'
'tasted_'
'beforehand_'
'Job_'
'courteous_'
'203_'
'drifted_'
'ghosts_'
'imported_'
'destructive_'
'Swiss_'
'Chaucer_'
'guides_'
'accommodation_'
'hostility_'
'threats_'
'Harriet_'
'traversed_'
'Tim_'
'usage_'
'compromise_'
'resume_'
'orderly_'
'clause_'
'ana_'
'chicken_'
'1851_'
'Empress_'
'chariot_'
'promote_'
'pigs_'
'gallop_'
'PI_'
'Joshua_'
'Really_'
'Hastings_'
'resolute_'
'tan_'
'uneasiness_'
'pulse_'
'209_'
'resolutions_'
'overlooked_'
'ravine_'
'YOU_'
'mound_'
'spaces_'
'Khan_'
'ridicule_'
'adv_'
'rods_'
'alternative_'
'hoarse_'
'dwellings_'
'Norway_'
'.\u;_'
'realise_'
'rash_'
'respectful_'
'accurately_'
'kettle_'
'Inn_'
'link_'
'gleaming_'
'215_'
'Maggie_'
'rob_'
'magazine_'
'indicates_'
'elderly_'
'painfully_'
'Rob_'
'rolls_'
'tempered_'
'pasture_'
'desperately_'
'vent_'
'cable_'
'advocate_'
'Ladies_'
'Denmark_'
'Protestants_'
'Sydney_'
'sis_'
'Julian_'
'211_'
'24th_'
'207_'
'celestial_'
'peculiarities_'
'tearing_'
'blossom_'
'dominions_'
'Twas_'
'entrusted_'
'dusty_'
'abide_'
'assented_'
'ée_'
'sect_'
'Music_'
'TE_'
'vines_'
'ul_'
'198_'
'1881_'
'calf_'
'energies_'
'unbroken_'
'contribute_'
'Continent_'
'Jesuits_'
'dagger_'
'wrongs_'
'206_'
'skirt_'
'\u)_'
'Dante_'
'winged_'
'palms_'
'hs_'
'plantation_'
'Al_'
'survived_'
'Wolf_'
'Walker_'
'Than_'
'productive_'
'rags_'
'connexion_'
'metals_'
'199_'
'tries_'
'eminently_'
'shudder_'
'groan_'
'Brigade_'
'shaded_'
'differs_'
'fragrant_'
'saloon_'
'muscle_'
'213_'
'sleeves_'
'mock_'
'Julius_'
'stead_'
'approaches_'
'cigarette_'
'wrist_'
'relationship_'
'stating_'
'sleepy_'
'Nan_'
'rubber_'
'champion_'
'implies_'
'extinct_'
'soda_'
'imitate_'
'fugitive_'
'lbs_'
'Dora_'
'embroidered_'
'greet_'
'steed_'
'screamed_'
'supremacy_'
'joyful_'
'forgiven_'
'trout_'
'divorce_'
'Fate_'
'novelty_'
'rains_'
'requiring_'
'requirements_'
'wooded_'
'Maryland_'
'banner_'
'mining_'
'dimly_'
'choked_'
'terrific_'
'salute_'
'= (_'
'waiter_'
'Team_'
'tame_'
'Amy_'
'Clement_'
'unexpectedly_'
'expresses_'
'tolerably_'
'theological_'
'ridden_'
'passionately_'
'associates_'
'vigorously_'
' + _'
'214_'
'ν_'
'increases_'
'captivity_'
'splendor_'
'1890_'
'shilling_'
'compliments_'
'216_'
'Syria_'
'patches_'
'duck_'
'disastrous_'
'worried_'
'stature_'
'serene_'
'weigh_'
'peaks_'
'loses_'
'ud_'
'transfer_'
'om_'
'Parker_'
'fewer_'
'beads_'
'Belgium_'
'Maine_'
'bravery_'
'Voltaire_'
'revolutionary_'
'eyebrows_'
'trench_'
'opponent_'
'aforesaid_'
'rabbit_'
'brightly_'
'expenditure_'
'Back_'
'coins_'
'ane_'
'CONTENTS_'
'anew_'
'Unfortunately_'
'sings_'
'sweat_'
'grandson_'
'worlds_'
'1866_'
'bility_'
'ably_'
'superb_'
'1882_'
'didst_'
'joints_'
'.;_'
'pursuits_'
'edifice_'
'shadowy_'
'Gabriel_'
'allegiance_'
'resident_'
'fork_'
'fragment_'
'benefits_'
'cavity_'
'smoked_'
'Whenever_'
'grade_'
'forcing_'
'resurrection_'
'                              _'
'     |_'
'integrity_'
'escaping_'
'suspense_'
'sting_'
'endurance_'
'Shelley_'
'vicious_'
'conceptions_'
'pastor_'
'baptized_'
'Speak_'
'PAGE_'
'insane_'
'Modern_'
'paintings_'
'260_'
'shelf_'
'wires_'
'Cumberland_'
'snapped_'
'21st_'
'treasury_'
'battalion_'
'Seeing_'
'clerks_'
'tombs_'
'218_'
'countless_'
'sunrise_'
'legends_'
'pirates_'
'defects_'
'attorney_'
'Stewart_'
'nursery_'
'occupying_'
'Baltimore_'
'axis_'
'exceptional_'
'desolation_'
'plead_'
'cit_'
'mes_'
'establishing_'
'217_'
'28th_'
'treacherous_'
'ris_'
'kissing_'
'skirts_'
'XX_'
'Creator_'
'gulf_'
'                               _'
'ille_'
'mouse_'
'Leonard_'
'Papa_'
'hardy_'
'majestic_'
'slay_'
'shrugged_'
'lifetime_'
'encamped_'
'                                 _'
'weed_'
'argue_'
'orchard_'
'suicide_'
'industrious_'
'accepting_'
'ria_'
'Cabinet_'
'Canterbury_'
'urging_'
'infancy_'
'withered_'
'extinguished_'
'conventional_'
'HENRY_'
'concrete_'
'?"  _'
'gaily_'
';' _'
'historians_'
'Wright_'
'devised_'
'Sylvia_'
'Trade_'
'leaping_'
'cousins_'
'crooked_'
'piercing_'
'insight_'
'sage_'
'sy_'
'aye_'
'Immediately_'
'firmness_'
'foregoing_'
'pretext_'
'1867_'
'departments_'
'shares_'
'borrow_'
'ington_'
'tubes_'
'!\u _'
'singer_'
'hangs_'
')--_'
'Laws_'
'delights_'
'marine_'
'junction_'
'vigor_'
'virgin_'
'235_'
'Station_'
'shawl_'
'aristocracy_'
'Sherman_'
'ole_'
'correspondent_'
'                                _'
'fee_'
''; _'
'yearly_'
'Said_'
'221_'
'Worcester_'
'Online_'
'admiring_'
'Railway_'
'nostrils_'
'encouraging_'
'Winchester_'
'Guards_'
'ó_'
'tough_'
'packet_'
'\u (\u_'
'consequent_'
'whispering_'
'Often_'
'xii_'
'Vincent_'
'Flora_'
'alteration_'
'boarding_'
'Connecticut_'
'\u]_'
'Frances_'
'Proofreading_'
'politeness_'
'endeavored_'
'Ever_'
'pt_'
'p'
'homeward_'
'grin_'
'excluded_'
'condemn_'
'fund_'
'strengthen_'
'arbitrary_'
'practise_'
'lain_'
'Belle_'
'nous_'
'Swift_'
'operate_'
'YORK_'
'lance_'
'robbery_'
'Taking_'
'1876_'
'burg_'
'Glasgow_'
'gifted_'
'maintaining_'
'proving_'
'Ed_'
'needful_'
'Mill_'
'Holmes_'
'transmitted_'
'toe_'
'tz_'
'RS_'
'hailed_'
'{~_'
'spur_'
'\u] \u_'
'tissue_'
'merciful_'
'freight_'
'Reformation_'
'1830_'
'30th_'
'heavier_'
'alternately_'
'pump_'
'valiant_'
'displeasure_'
'regulated_'
'mute_'
'L'
'saluted_'
'divinity_'
'sinner_'
'afore_'
'confinement_'
'“\u_'
'monotonous_'
'courtyard_'
'Legislature_'
'1868_'
'OMEGA_'
'honors_'
'Avenue_'
'approbation_'
'HOW_'
'rub_'
'traveling_'
'Augustine_'
'kindled_'
'1885_'
'attacking_'
'Poland_'
'equipped_'
'colonists_'
'tenants_'
'224_'
'praises_'
'favored_'
'habitual_'
'Money_'
'Bristol_'
'digging_'
'nests_'
'commissioners_'
'mills_'
'219_'
'weekly_'
'depressed_'
'Silver_'
'figured_'
'Norwich_'
'hosts_'
'Ma_'
'Morning_'
'EN_'
'Elsie_'
'weaker_'
'instinctively_'
'Hand_'
'temporal_'
'1840_'
'weariness_'
'ston_'
'223_'
'resulting_'
'sped_'
'Treasury_'
'worms_'
'Iron_'
'accusation_'
'nod_'
'Sicily_'
'assuredly_'
'sighted_'
'Alps_'
'publish_'
'closet_'
'handling_'
'Consul_'
'270_'
'deposits_'
'topic_'
'Clay_'
'intermediate_'
'thrice_'
'Peru_'
'zealous_'
'?-_'
'perceiving_'
'Essex_'
'twelfth_'
'executive_'
'222_'
'sewing_'
'Thirty_'
'dispose_'
'inevitably_'
'Pan_'
'coasts_'
'Australian_'
'1854_'
'classic_'
'.'  _'
'apron_'
'boot_'
'torch_'
'liberties_'
'rascal_'
'Flanders_'
'dazzling_'
'frown_'
'Against_'
'ERS_'
'229_'
'memorial_'
'performing_'
'raging_'
'convert_'
'Series_'
'sympathies_'
'strokes_'
'227_'
'expectations_'
'explains_'
'Venetian_'
'sire_'
'endeavouring_'
'doubled_'
'overthrow_'
'crust_'
'Heart_'
'hip_'
'sights_'
'covenant_'
'contradiction_'
'1878_'
'dances_'
'Rogers_'
'Haven_'
'hawk_'
'dealer_'
'lingering_'
'adversary_'
'245_'
'ONE_'
'Chamber_'
'Gladstone_'
'hardened_'
'                                  _'
'confirm_'
'“‘_'
'loan_'
'C'
'Eugene_'
'antique_'
'DW52_'
'26th_'
'devices_'
'baron_'
'accidental_'
'Unless_'
'Yours_'
'Hal_'
'plea_'
'Didn_'
'charmed_'
'occupations_'
'efficiency_'
'distrust_'
'research_'
'231_'
'repent_'
'deliverance_'
'associate_'
'Vice_'
'contend_'
'Introduction_'
'Europeans_'
'1884_'
'fraud_'
'Leslie_'
'wed_'
'1857_'
'ranges_'
'mineral_'
'borough_'
'exerted_'
'ATION_'
'233_'
'strive_'
'tends_'
'successors_'
'Die_'
'228_'
'MU_'
'sorrowful_'
'jungle_'
'practices_'
'Miles_'
'Full_'
'demon_'
'Powers_'
'duel_'
'discovering_'
'intending_'
'Hunt_'
'indication_'
'morn_'
'Anderson_'
'wearied_'
'knocking_'
'hairs_'
'damned_'
'.\u (_'
'Beauty_'
'owes_'
'226_'
'valve_'
'27th_'
'woven_'
'sweetest_'
'spray_'
'threat_'
'Geoffrey_'
'Moon_'
'Hungary_'
'SE_'
'tho_'
'Mabel_'
'ky_'
'rim_'
'replies_'
'notorious_'
'Mamma_'
'simplest_'
'ware_'
'whale_'
'232_'
'slew_'
'lists_'
'                                   _'
'aristocratic_'
'cs_'
'Bath_'
'ridges_'
'perfume_'
'241_'
'kingdoms_'
'monarchy_'
'237_'
'intelligible_'
'Hush_'
'Baker_'
'panting_'
'behave_'
'Tree_'
'senate_'
'countess_'
'neutral_'
'shrank_'
'las_'
'flee_'
'Webster_'
'richer_'
'fills_'
'pitiful_'
'finishing_'
'appeals_'
'idol_'
'airs_'
'recourse_'
'issues_'
'ancients_'
'staggered_'
'Archie_'
'delivery_'
'references_'
'lastly_'
'confidential_'
'236_'
'ping_'
'hoofs_'
'caste_'
'pistols_'
'forlorn_'
'emergency_'
'pr_'
'Jacques_'
'miraculous_'
'attentive_'
'sermons_'
'fishermen_'
'unequal_'
'promoted_'
'parade_'
'retiring_'
'simultaneously_'
'improbable_'
'fixing_'
'280_'
'communities_'
'paradise_'
'immortality_'
'sexual_'
'EBook_'
'han_'
'sized_'
'peak_'
'communications_'
'1869_'
'retirement_'
'tu_'
'oval_'
'1892_'
'piles_'
'parcel_'
'discontent_'
'ruling_'
'skipper_'
'velocity_'
'1871_'
'injurious_'
'Sandy_'
'sanctuary_'
'Palestine_'
'architect_'
'Harrison_'
'hare_'
'Hood_'
'poisoned_'
'1877_'
'Brussels_'
'connecting_'
'transaction_'
'satin_'
'forcibly_'
'attentions_'
'lame_'
'attire_'
'29th_'
'Eh_'
'CH_'
'pronounce_'
'Farewell_'
'painters_'
'respectfully_'
'ets_'
'1859_'
') \u_'
'thirteenth_'
'perplexed_'
'coachman_'
'kicked_'
'Apostles_'
'stain_'
'liver_'
'magnificence_'
'trivial_'
'\u; \u_'
'sketches_'
'happening_'
'stool_'
'babies_'
'234_'
'curls_'
'tranquil_'
'ledge_'
'estimation_'
'intently_'
'con_'
'” (_'
'sentimental_'
'obscurity_'
'Theatre_'
'sweetly_'
'opposing_'
'ideals_'
'besieged_'
'Salt_'
'Bessie_'
'ata_'
'238_'
'rushes_'
'gin_'
'catastrophe_'
'.    _'
'confronted_'
'flattering_'
'accumulated_'
'pomp_'
'RE_'
'creep_'
'addresses_'
'frail_'
'mar_'
'Jenny_'
'Wordsworth_'
'comic_'
'comforts_'
'1883_'
'pluck_'
'tailor_'
'Blanche_'
'uttering_'
'illusion_'
'representations_'
'prompted_'
'Si_'
'Porter_'
'educational_'
'deaths_'
'dame_'
'Jonathan_'
'indicating_'
'Away_'
'dashing_'
'bout_'
'blushed_'
'Philosophy_'
'suggestive_'
'button_'
'spelling_'
'Reason_'
'mounting_'
'Low_'
'spears_'
'precision_'
'Cecil_'
'257_'
'inscriptions_'
'indications_'
'Zealand_'
'dusky_'
'yea_'
'goodly_'
'256_'
'consul_'
'1872_'
'Kennedy_'
'ladyship_'
'inscribed_'
'nowadays_'
'Leicester_'
'teaches_'
'dove_'
'messengers_'
'observes_'
'reduction_'
'Edgar_'
'pretensions_'
'plentiful_'
'255_'
'derive_'
'rats_'
'Historical_'
'data_'
'Cut_'
'verge_'
'strata_'
']'_'
'Commissioners_'
'nothin_'
'colouring_'
'balcony_'
'LAMDA_'
'lid_'
'herds_'
'Carlyle_'
'rattle_'
'pillar_'
'amazing_'
'reddish_'
'incessant_'
'1852_'
'superficial_'
'channels_'
'contemporaries_'
'youths_'
'wherefore_'
'frantic_'
'242_'
'pins_'
'gardener_'
'flattered_'
'1901_'
'strode_'
'aims_'
'.      _'
'1895_'
'definitely_'
'bridegroom_'
'baskets_'
'Regent_'
'Song_'
'fourteenth_'
'projected_'
'groves_'
'239_'
'Danish_'
'inconvenience_'
'1812_'
'1855_'
'wee_'
'deity_'
'246_'
'Cornwall_'
'mystic_'
'precautions_'
'P'
'claws_'
'Name_'
'265_'
'247_'
'1887_'
'villa_'
'1858_'
'Won_'
'                                    _'
'demonstrated_'
'preserving_'
'explanations_'
'bored_'
'N'
'gum_'
'los_'
'harness_'
'environment_'
'stored_'
'betwixt_'
'1896_'
'spurs_'
'illuminated_'
'bowing_'
'unreasonable_'
'TION_'
'800_'
'fireplace_'
'knit_'
'Wm_'
'Bring_'
'Helena_'
'Ethel_'
'massacre_'
'ula_'
'import_'
'benevolent_'
'implements_'
'announce_'
'. [\u_'
'transported_'
'downwards_'
'speedy_'
'Ask_'
'gratification_'
'injure_'
'constitutes_'
'belly_'
'reminds_'
'weighing_'
'applying_'
'Read_'
'1875_'
'luxurious_'
'beans_'
'Comte_'
'stops_'
'researches_'
'equipment_'
'249_'
'Bird_'
'humiliation_'
'males_'
'banker_'
'tips_'
'occupies_'
'Windsor_'
'offerings_'
'elegance_'
'elders_'
'Plymouth_'
'END_'
'tendencies_'
'barrels_'
'1879_'
'ung_'
'243_'
'stems_'
'daybreak_'
'tumbled_'
'HE_'
'recovering_'
'admits_'
'244_'
'thirds_'
'veiled_'
'conqueror_'
'gilded_'
'Ford_'
'luminous_'
'amendment_'
'Spaniard_'
'gap_'
'Dickens_'
'sobbed_'
'signature_'
'castles_'
'helmet_'
'crude_'
'clumsy_'
'1846_'
'doe_'
'Leon_'
'formula_'
'Constantine_'
'Troy_'
'Italians_'
'thrilling_'
'vows_'
'secular_'
'grapes_'
'completion_'
'necessities_'
'interpreted_'
'248_'
'messages_'
'refinement_'
'Duncan_'
'guineas_'
'Saul_'
'predecessors_'
'criminals_'
'drill_'
'swollen_'
'HER_'
'directing_'
'stammered_'
'252_'
'Falls_'
'orum_'
'Donald_'
'Papers_'
'customers_'
'Wall_'
'.+ _'
'League_'
'snowy_'
'detect_'
'akin_'
'Gate_'
'motto_'
'senior_'
'hints_'
'quotation_'
'impossibility_'
'Houses_'
'keepers_'
'studio_'
'renew_'
'hides_'
'hopeful_'
'deem_'
'251_'
'bother_'
'prodigious_'
'unlucky_'
'merrily_'
'charitable_'
'natures_'
', "\u_'
'carpenter_'
'XXI_'
'1888_'
'), \u_'
'drawer_'
'continuance_'
'bald_'
'1856_'
'bin_'
'1837_'
'terminated_'
'Yankee_'
'orator_'
'253_'
'4to_'
'Large_'
'outrage_'
'1886_'
'grimly_'
'Guard_'
'superfluous_'
'Von_'
'cally_'
'selfishness_'
'd'
'survive_'
'curled_'
'suffrage_'
'irritation_'
'sombre_'
'1893_'
'reasonably_'
'boiler_'
'styled_'
'persistent_'
'collections_'
'comprehensive_'
'LEY_'
'marvel_'
'skilled_'
'stables_'
'odious_'
'1891_'
'pgdp_'
'jumping_'
'goats_'
'Ff_'
'350_'
'starts_'
'employer_'
'Isabella_'
'excursion_'
'254_'
'swamp_'
'shrink_'
'insurrection_'
'torment_'
'Minor_'
'Clarke_'
'urs_'
'inspire_'
'propositions_'
'salmon_'
'ranch_'
'Judith_'
'hardships_'
'yell_'
';” _'
'odds_'
'ites_'
'Oregon_'
'1906_'
'resign_'
'invaded_'
'Et_'
'victories_'
'heresy_'
'DW65_'
'companionship_'
'Hercules_'
'Allan_'
'superintendent_'
'HOUSE_'
'peculiarity_'
'Jeanne_'
'orthodox_'
'abrupt_'
'pamphlet_'
'Eagle_'
'practicable_'
'considers_'
'organism_'
'bacon_'
'hinted_'
'ney_'
'overboard_'
'1849_'
'chalk_'
'international_'
'facility_'
'Fleet_'
'chivalry_'
'colonial_'
'heretofore_'
'healing_'
'Frenchmen_'
'tranquillity_'
'enacted_'
'nought_'
'Coleridge_'
'slide_'
'outlines_'
'Lydia_'
'toast_'
'whipped_'
'inquiring_'
'termination_'
'Towards_'
'264_'
'expended_'
'planets_'
'questioning_'
'GENERAL_'
'Hector_'
'wig_'
'nicely_'
'designated_'
'warmed_'
'Hunter_'
'268_'
'commissioned_'
'Salisbury_'
'Bertha_'
'muddy_'
'utility_'
'hae_'
'helm_'
'disguised_'
'magnetic_'
'1905_'
'varies_'
'sorely_'
'Wherefore_'
'patronage_'
'surfaces_'
'Century_'
'humorous_'
'Watson_'
'judgments_'
'Memoirs_'
'disappearance_'
'</_'
'accession_'
'shrubs_'
'275_'
'authorized_'
'ō_'
'edged_'
'rotten_'
'reconciled_'
'values_'
'Maud_'
'camps_'
'combine_'
'transportation_'
'coals_'
'.     _'
'location_'
'LADY_'
'elect_'
'comb_'
'Louisiana_'
'Vernon_'
'1889_'
' (?), _'
'smote_'
'stumbled_'
'Goethe_'
'loveliness_'
'knots_'
'dreadfully_'
'pro_'
'shuddered_'
'ALL_'
'license_'
'elephants_'
'\u.--_'
'Theodore_'
'statesmen_'
'thereupon_'
'1874_'
'devout_'
'259_'
'rouse_'
'defect_'
'prints_'
'cavern_'
'cultivate_'
'Pole_'
'captives_'
'legislative_'
'arranging_'
'necks_'
'Pauline_'
'Henri_'
'stray_'
'coolness_'
'c'
'Yorkshire_'
'frock_'
'263_'
'starved_'
'churchyard_'
'reject_'
'1873_'
'Hannah_'
'melting_'
'discouraged_'
'passive_'
'loneliness_'
'spinning_'
'NO_'
'feudal_'
'censure_'
'casual_'
'Strong_'
'reflecting_'
'familiarity_'
'lee_'
'ded_'
'hound_'
'Prayer_'
'tint_'
'cus_'
'dismounted_'
'258_'
'wheeled_'
'quod_'
'lus_'
'THOMAS_'
'hum_'
'sobbing_'
'Roberts_'
'Education_'
'raft_'
'enduring_'
'combinations_'
'Ministers_'
'shift_'
'discern_'
'reluctantly_'
'politely_'
'metallic_'
'dividing_'
'acceptable_'
'Dale_'
'1847_'
'happiest_'
'261_'
'266_'
'watches_'
'fugitives_'
'expeditions_'
'oblige_'
'feverish_'
'Cap_'
'ement_'
'catalogue_'
'Virgil_'
'                                     _'
'deprive_'
'cheers_'
'cheered_'
'blamed_'
'grasping_'
'layers_'
'vinegar_'
'hee_'
'maps_'
'crow_'
'profoundly_'
'1897_'
'273_'
'oaths_'
'writ_'
'imply_'
'flourishing_'
'sculpture_'
'baked_'
'Randolph_'
'anterior_'
'Burns_'
'insensible_'
'buttons_'
'herbs_'
'prosecution_'
'.\u—_'
'tunnel_'
'Aaron_'
'Close_'
'1845_'
'glided_'
'comforted_'
'267_'
'Call_'
'unfit_'
'scoundrel_'
'...."_'
'outbreak_'
'1814_'
'abilities_'
'Poems_'
'graces_'
'Nearly_'
'cracked_'
'brand_'
'rails_'
'Netherlands_'
'plaster_'
'beneficial_'
'Hilda_'
'confine_'
'barred_'
'Hell_'
'262_'
'Bar_'
'ues_'
'localities_'
'Gloucester_'
'advisable_'
'sovereigns_'
'protecting_'
'proverb_'
'enclosure_'
'Antony_'
'solemnity_'
'Brazil_'
'ron_'
'cheering_'
'Turk_'
'applies_'
'amounts_'
'icy_'
'esse_'
'Godfrey_'
'inmates_'
'Pa_'
'affliction_'
'Mine_'
'VE_'
'confidently_'
'statute_'
'miniature_'
'Abbot_'
'weird_'
'homely_'
'clue_'
'Sit_'
'aft_'
'freshness_'
'lustre_'
'fabric_'
'Apostle_'
'contributions_'
'' '_'
'odor_'
'undisturbed_'
'recollections_'
'dripping_'
'metropolis_'
'Carl_'
'edited_'
'grotesque_'
'SCENE_'
'perpendicular_'
'inviting_'
'.' '_'
'clearer_'
'calculation_'
'6s_'
'05_'
'pork_'
'Sound_'
'consternation_'
'gotten_'
'271_'
'tutor_'
'cruelly_'
'lump_'
'tum_'
'situations_'
'chickens_'
'lore_'
'cordially_'
'butcher_'
'ornamental_'
'Yellow_'
'assailed_'
'1894_'
'starving_'
'powdered_'
'withal_'
'ett_'
'camels_'
'objective_'
'272_'
'ère_'
'allows_'
'1904_'
'steamers_'
'Lost_'
'helps_'
'accomplishment_'
'inference_'
'Way_'
'hauled_'
'1815_'
'valour_'
'sports_'
'cottages_'
'ery_'
'asylum_'
'archbishop_'
'drooping_'
'pudding_'
'1836_'
'emptied_'
'drives_'
'privately_'
'Shortly_'
'D'
'|    _'
'correspond_'
'trusting_'
'gambling_'
'Wife_'
'streaming_'
'mischievous_'
'workman_'
'frighten_'
'Violet_'
'benevolence_'
'}  _'
'secondly_'
'boyhood_'
'ducks_'
'condemnation_'
'longest_'
'Summer_'
'274_'
'diligence_'
'News_'
'  |   _'
'plough_'
'signifies_'
'drinks_'
'nervously_'
'Jordan_'
'dly_'
'                                      _'
'slipping_'
'cowardly_'
'strips_'
'lateral_'
'insulted_'
'headlong_'
'unsuccessful_'
'chaplain_'
'needless_'
'composure_'
'Clarence_'
'formally_'
'rubbish_'
'abundantly_'
'apostles_'
'Coast_'
'Edwin_'
'tray_'
'landlady_'
'Edwards_'
'evidences_'
'2s_'
'gentleness_'
'umbrella_'
'Cuba_'
'models_'
'engagements_'
'hed_'
'hush_'
'Evelyn_'
'Rather_'
'eus_'
'Yea_'
'waistcoat_'
'tact_'
'hospitable_'
'spies_'
'remnant_'
'Delaware_'
'1907_'
'Monte_'
'infernal_'
'\u.]_'
'Always_'
'dem_'
'290_'
'provoked_'
'rn_'
'crushing_'
'gear_'
'269_'
'prostrate_'
'leisurely_'
'XXII_'
'abolished_'
'tortured_'
'inconsistent_'
'indignantly_'
'investigations_'
'clearness_'
'alarming_'
'manuscripts_'
'hospitals_'
'foreigner_'
'jewel_'
'confided_'
'1853_'
'.] (_'
'powerless_'
'lib_'
'UM_'
'pretending_'
'adult_'
'Channel_'
'CAPITAL_'
'penetrating_'
'feller_'
'mutton_'
'promotion_'
'Exit_'
'ht_'
'Happy_'
'interpreter_'
'earthquake_'
'engraving_'
'eau_'
'bat_'
'substituted_'
'affirm_'
'Mission_'
'railways_'
'rie_'
'interfered_'
'diplomatic_'
'Gentleman_'
'Canal_'
'Cat_'
'idleness_'
'hes_'
'sundry_'
'rustic_'
'fisherman_'
'Jasper_'
'Ernest_'
'      |_'
'Military_'
'stocks_'
'convictions_'
'ko_'
'strolled_'
'lapse_'
'pleading_'
'Dog_'
'Angel_'
'prizes_'
'Clare_'
');_'
'1903_'
'Grecian_'
'Wells_'
'analogy_'
'preface_'
'sobs_'
'wuz_'
'1842_'
'republican_'
'caves_'
'topics_'
' - _'
'Birds_'
'lia_'
'stony_'
'flourish_'
'rounds_'
'loaf_'
'shines_'
'measuring_'
' / _'
'anticipation_'
'^{_'
'galleries_'
'secrecy_'
'insolent_'
'justification_'
'Meantime_'
'heaped_'
'thicket_'
'matches_'
'personages_'
'delusion_'
'extracts_'
'disgusted_'
'dynasty_'
'standards_'
'Hear_'
'Warwick_'
'renowned_'
'insufficient_'
'pilgrimage_'
'beats_'
'consultation_'
'Matilda_'
'1832_'
'excused_'
'surpassed_'
'fellowship_'
'abused_'
'Palmer_'
'Pen_'
'grammar_'
'brisk_'
'compressed_'
'ef_'
'charcoal_'
'Gertrude_'
'Literature_'
'T'
'285_'
'packing_'
'china_'
'1902_'
'Carter_'
'shabby_'
'Moors_'
'   | _'
'shafts_'
'gladness_'
'dependence_'
'determining_'
'PART_'
'Mercy_'
'projects_'
'bathing_'
'Line_'
'320_'
'canst_'
'Howe_'
'structures_'
'weakened_'
'ial_'
'Cyrus_'
'violin_'
'Valentine_'
'compose_'
'Katherine_'
'outfit_'
'applicable_'
'handwriting_'
'perplexity_'
'spoon_'
'ranged_'
'regulation_'
'ques_'
'drain_'
'hydrogen_'
'enchanted_'
'.|_'
'THAT_'
'tribunal_'
'pledged_'
'heirs_'
'swam_'
'enforce_'
'; ~_'
'Fathers_'
'Compare_'
'Appendix_'
'securely_'
'habitation_'
'flourished_'
'dock_'
'Nation_'
'G'
'sey_'
'sour_'
'§ _'
'genera_'
'camel_'
' . . . _'
'geographical_'
'mature_'
'fowls_'
'carts_'
'S'
'watchful_'
'Dryden_'
'Amen_'
'doll_'
'boundaries_'
'preventing_'
'terrors_'
'Asiatic_'
'snakes_'
'fruitful_'
'Ellis_'
'nobler_'
'democratic_'
'Run_'
'printer_'
'bricks_'
'permanently_'
'faltered_'
'membrane_'
'performances_'
'emphatically_'
'resorted_'
'Christendom_'
'episode_'
'persuasion_'
'gestures_'
'municipal_'
'infamous_'
'crawled_'
'Cavalry_'
'plateau_'
'Body_'
'worker_'
'hymns_'
'harp_'
'squares_'
'pagan_'
'carbon_'
'confirmation_'
'clasp_'
'butler_'
'girdle_'
'Persians_'
'vicar_'
'289_'
'1800_'
'achievement_'
'wrecked_'
'judicious_'
'Use_'
'echoes_'
'Wagner_'
'scores_'
'poisonous_'
'kid_'
'wid_'
'planting_'
'impulses_'
'1844_'
'276_'
'tap_'
'cough_'
'Noah_'
'277_'
'surmounted_'
'attach_'
'281_'
'expelled_'
'precipice_'
'Pete_'
'distracted_'
'web_'
'lust_'
'thirsty_'
'Human_'
'xiii_'
'Stella_'
'lings_'
'dipped_'
'shriek_'
'galloped_'
'rapture_'
'desiring_'
'g'
'bedside_'
'disputed_'
'Cooper_'
'contribution_'
'bluff_'
'ordering_'
'expansion_'
'bathed_'
'Austin_'
'drying_'
'sp_'
'traveled_'
'effectual_'
'rector_'
'brig_'
'Gazette_'
'similarly_'
'gratify_'
'hazard_'
'introducing_'
'manufactured_'
'materially_'
'' (_'
'Lo_'
'lacked_'
'fetched_'
'sly_'
'silvery_'
'perpetually_'
'soothing_'
'arched_'
'brushed_'
'boundless_'
'288_'
'Hester_'
'Albany_'
'287_'
'fortifications_'
'telescope_'
'Pass_'
'Mar_'
'mechanism_'
'flaming_'
'progressive_'
'transition_'
'reluctance_'
'tank_'
'democracy_'
'drums_'
'aspects_'
'Transcriber_'
'libraries_'
'Total_'
'adjusted_'
'Truly_'
'plank_'
'fragrance_'
'IC_'
'mediaeval_'
'Arms_'
'pilgrims_'
'affirmed_'
'282_'
'roast_'
'haunts_'
'whistling_'
'Arabic_'
'volunteers_'
'devoured_'
'appoint_'
'riot_'
'gains_'
'buds_'
'distinctions_'
'PLATE_'
'tenant_'
'ab_'
'Socrates_'
'sulphur_'
'ide_'
'Davy_'
'treaties_'
'drifting_'
'                                       _'
'shipping_'
'bien_'
'yellowish_'
'choosing_'
'Shakspeare_'
'Abbe_'
'irritated_'
'intimately_'
'denounced_'
'annals_'
'Edited_'
'Twelve_'
'degradation_'
'melt_'
'linger_'
'extracted_'
'territories_'
'exhaustion_'
'swelled_'
'Representatives_'
'dwarf_'
'.\u \u_'
'forbade_'
'inventor_'
'flint_'
'Going_'
'accuse_'
'Sophia_'
'perceptible_'
'pence_'
'garb_'
'cling_'
'Hamlet_'
'Claude_'
'circus_'
'Cecilia_'
'283_'
'mortals_'
'278_'
'undergone_'
'manufactures_'
'tracts_'
'retreating_'
'ates_'
'anon_'
'279_'
'constable_'
'peninsula_'
'forwards_'
'ponies_'
': ‘_'
'holiness_'
'disdain_'
'286_'
'conjunction_'
'damsel_'
'fascination_'
'hem_'
'professors_'
'contemplate_'
'submarine_'
'vale_'
'absurdity_'
'instituted_'
' : _'
'populace_'
'Tony_'
'incessantly_'
'injuries_'
'accidentally_'
'willow_'
'Whom_'
'centres_'
'yelled_'
'nave_'
'gaiety_'
'1841_'
'Basil_'
'Ho_'
'Lordship_'
'transactions_'
'Giles_'
'295_'
'ont_'
'multiplied_'
'brilliancy_'
'extravagance_'
'prohibited_'
'ejaculated_'
'Alan_'
'violation_'
'tending_'
'284_'
'guarantee_'
'flatter_'
'glories_'
'limestone_'
'Along_'
'lowering_'
'Ivan_'
'abound_'
'Gaul_'
'rivals_'
'LA_'
'degraded_'
'shivering_'
'ood_'
'offend_'
'prevalent_'
'summon_'
'luggage_'
'LITTLE_'
'rations_'
'perils_'
'od_'
'howling_'
'IA_'
'surveyed_'
'attentively_'
'unt_'
'bud_'
'symbols_'
'truce_'
'characterized_'
'blushing_'
'berry_'
'xiv_'
'Aye_'
'fir_'
'Cairo_'
'refreshing_'
'fling_'
'sinful_'
'robber_'
'awakening_'
'disturbing_'
'Side_'
'Baptist_'
'Pardon_'
'musket_'
'Mac_'
'ecstasy_'
'solar_'
'presumed_'
'Mac'
'shifting_'
'1908_'
'audible_'
'\u[_'
'starve_'
'convicted_'
'enlisted_'
'ordinarily_'
'Marriage_'
'eyelids_'
'Willie_'
'dialogue_'
'instinctive_'
'hermit_'
'Except_'
'sob_'
'programme_'
'mechanically_'
'manor_'
'surround_'
'congratulate_'
'Pat_'
'launched_'
'orchestra_'
'2'
'sown_'
'dose_'
'loads_'
'Geneva_'
'holidays_'
'resource_'
'Cr_'
'rein_'
'Boers_'
'marriages_'
'rhyme_'
'advancement_'
'hotels_'
'grinned_'
'acknowledgment_'
'amusements_'
'Jesuit_'
'Thereupon_'
'register_'
'shelves_'
'Raymond_'
'1838_'
'1820_'
'sizes_'
'ungrateful_'
'TWO_'
'Fish_'
'TS_'
'vitality_'
'demons_'
'Lodge_'
'quarrels_'
'Drake_'
'enveloped_'
'comprehension_'
'manufacturing_'
'hateful_'
'bondage_'
'involve_'
'potent_'
'Browning_'
'traits_'
'involuntarily_'
'shady_'
'pictured_'
'additions_'
'dire_'
'arrives_'
'noticing_'
'.: _'
'Set_'
'Stand_'
'sinister_'
'relaxed_'
'outset_'
'wharf_'
'doubly_'
'hostilities_'
'Institute_'
'faire_'
'Stay_'
'germ_'
'cemetery_'
'ANT_'
'martyr_'
'volcanic_'
'awaken_'
'orphan_'
'regained_'
'perched_'
'Thence_'
'Daily_'
'gems_'
'heroine_'
'solve_'
'ei_'
'scouts_'
'compositions_'
'Territory_'
'starvation_'
'Josephine_'
'circumference_'
'Answer_'
'undergo_'
'devoid_'
'1834_'
'purest_'
'suppress_'
'Blood_'
'appropriated_'
'Steve_'
'310_'
'rag_'
'boasted_'
'restricted_'
'understands_'
'Shak_'
'traditional_'
'nodding_'
'rainy_'
'ght_'
'twist_'
'Archive_'
'coil_'
'305_'
'Y'
'musician_'
'K'
'xv_'
'. '
'veteran_'
'sensibility_'
'perchance_'
'groom_'
'concluding_'
'deserving_'
'Manila_'
'proclaim_'
'Toby_'
'stubborn_'
'owl_'
'Marian_'
'perseverance_'
'Evans_'
'Possibly_'
'291_'
'spectator_'
'demanding_'
'1835_'
'Burgundy_'
'dialect_'
'Days_'
'Send_'
'Soul_'
'Jessie_'
'Du_'
'coral_'
'outstretched_'
'opium_'
'ci_'
'quart_'
'!’ _'
'peered_'
'HISTORY_'
'assumes_'
'exceeded_'
'pang_'
'lily_'
'chestnut_'
'laborious_'
'replace_'
'gorge_'
'suite_'
'293_'
'                                        _'
'oblong_'
'1843_'
'pension_'
'Judah_'
'BE_'
'Certain_'
'silken_'
'Quixote_'
'racing_'
'launch_'
'mortar_'
'Lancaster_'
'instructive_'
'Elder_'
'markets_'
'Private_'
'sha_'
'ignored_'
'attractions_'
'relish_'
'displeased_'
'ballad_'
'dip_'
'chased_'
'ils_'
' #_'
'successively_'
'ach_'
'unit_'
'procedure_'
'outcome_'
'ceases_'
'exert_'
'briskly_'
'defending_'
'Words_'
'bruised_'
'Fear_'
'breasts_'
'rooted_'
'Mildred_'
'thereafter_'
'concealment_'
'\u! _'
'Inquisition_'
'beak_'
'trimmed_'
'stuffed_'
'gateway_'
'grape_'
'Opera_'
'reconciliation_'
'toy_'
'incense_'
'currency_'
'ick_'
'fluttering_'
'Karl_'
'Consequently_'
'fairies_'
'systematic_'
'connect_'
'spotted_'
'Afterwards_'
'292_'
'Paper_'
'Leaving_'
'ak_'
'Add_'
'297_'
'bait_'
'exhibits_'
'governess_'
'disclosed_'
'syllable_'
'pertaining_'
'taxation_'
'Doubtless_'
'denying_'
'COMPANY_'
'spoils_'
'donkey_'
'trim_'
'temperate_'
'apprehended_'
'renown_'
'ME_'
'XXIII_'
'sighs_'
'bustle_'
'1829_'
'proprietors_'
'defensive_'
'breeches_'
'maximum_'
'ang_'
'Gerard_'
'fondly_'
'Bright_'
'embracing_'
'indefinite_'
'Hardy_'
'Michigan_'
'impart_'
'trader_'
'Emerson_'
'entreated_'
'myth_'
'activities_'
'speculations_'
'satire_'
'labourers_'
'intervention_'
'elementary_'
'champagne_'
'Arabian_'
'blinded_'
'?’_'
'fairest_'
'hearers_'
'presumption_'
'315_'
'tub_'
'sloping_'
'admitting_'
'rudely_'
'convincing_'
'lumber_'
'summary_'
'mocking_'
'Fall_'
'temporarily_'
'chopped_'
'disputes_'
'dotted_'
'erection_'
'twinkling_'
'ribbons_'
'reckoning_'
'overheard_'
'corporal_'
'Moscow_'
'nos_'
'lava_'
'individuality_'
'moor_'
'ile_'
'disadvantage_'
'expired_'
'avoiding_'
'plumage_'
'cluster_'
'1839_'
'.)._'
'unlimited_'
'deference_'
'plantations_'
'morbid_'
'chen_'
'clenched_'
'IES_'
'shire_'
'Celtic_'
'thorns_'
'ering_'
'stamps_'
'colleges_'
'incurred_'
'/ _'
'refuses_'
'tints_'
'snuff_'
'reeds_'
'fulfilment_'
'litter_'
'ser_'
'cutter_'
'aversion_'
'296_'
'recommendation_'
'balanced_'
'sinners_'
'Ida_'
'boldness_'
'achievements_'
'texture_'
'Lyons_'
'Quick_'
'barley_'
'anchored_'
'grievous_'
'Volume_'
'ominous_'
'mentally_'
'Banks_'
'Signor_'
'nobly_'
'routine_'
'\u:_'
'manifestation_'
'endeavours_'
'boyish_'
'refreshment_'
'rack_'
'+, _'
'valet_'
'busily_'
'1909_'
'publisher_'
'bachelor_'
'contrasted_'
'distinctive_'
'Either_'
'quicker_'
'remedies_'
'Lorenzo_'
'farming_'
'merchandise_'
'298_'
'abolition_'
'marsh_'
'babe_'
'commanders_'
'\u." _'
'vapour_'
'influential_'
'triumphantly_'
'303_'
'moderation_'
'304_'
'analogous_'
'infer_'
'giants_'
'reconcile_'
'radical_'
'swayed_'
'advertisement_'
'294_'
'threaten_'
'pier_'
'susceptible_'
'vases_'
'signify_'
'Turning_'
'barracks_'
'pathos_'
'Girl_'
'330_'
'tossing_'
'immensely_'
'stair_'
'eccentric_'
'Hugo_'
'transformation_'
'Teddy_'
'nte_'
'ches_'
'GREAT_'
'Indiana_'
'voluntarily_'
'testify_'
' [\u_'
'Eden_'
'spontaneous_'
'STREET_'
'photographs_'
'ether_'
'senseless_'
'confer_'
'beliefs_'
'malicious_'
'Brothers_'
'Lloyd_'
'tickets_'
'sticking_'
'325_'
'director_'
'abyss_'
'tangled_'
'307_'
'Dudley_'
'blacks_'
'enables_'
'tow_'
'repay_'
'ambassadors_'
'gleamed_'
'balloon_'
'zing_'
'trot_'
'cometh_'
'Slavery_'
'Giovanni_'
'triumphs_'
'solved_'
'Silence_'
'Marcus_'
'301_'
'Daisy_'
'Treaty_'
'barbarians_'
'  '
' ._'
'                                         _'
'tomorrow_'
'ber_'
'vowed_'
'Section_'
'patriot_'
'disliked_'
'1000_'
'miners_'
'Various_'
'306_'
'stripes_'
'musicians_'
'revival_'
'Rivers_'
'wisest_'
'notices_'
'anecdote_'
'Air_'
'curves_'
'brink_'
'thereto_'
'Know_'
'oar_'
'Fairy_'
'forsaken_'
'Evidently_'
'NOTE_'
'merriment_'
'underground_'
'iness_'
'friction_'
'Try_'
'n'
'alien_'
'Princes_'
'Commissioner_'
't'
'Saxons_'
'journeys_'
'masculine_'
'allotted_'
'weren_'
'expanse_'
'occupants_'
'slid_'
'slate_'
'politicians_'
'delicately_'
'airy_'
'ax_'
'commented_'
'gracefully_'
'ave_'
'peep_'
'deputy_'
'classification_'
'Hampshire_'
'aspirations_'
'# _'
'Marshall_'
'beseech_'
' &_'
'affectionately_'
'shameful_'
'lilies_'
'ache_'
'convict_'
'ado_'
'jokes_'
'cheerfulness_'
'courtiers_'
'MENT_'
'Colorado_'
'ise_'
'burdens_'
'299_'
'wreath_'
'lt_'
'reside_'
'Pl_'
'beset_'
'dey_'
'700_'
'whisky_'
'subsided_'
'fable_'
'paternal_'
'vs_'
'Mike_'
'lever_'
'engineers_'
'Eliza_'
'marquis_'
'diminish_'
'zone_'
'Johnston_'
'AR_'
'torches_'
'elastic_'
'Self_'
'Chronicle_'
'Waterloo_'
'Mackenzie_'
'tive_'
'plucked_'
'fruitless_'
'advantageous_'
'feat_'
'disregard_'
']  _'
'chat_'
'odour_'
'v'
'hopelessly_'
'despairing_'
'canon_'
'rides_'
'Province_'
'frigate_'
'Jerome_'
'pigeon_'
'Ambassador_'
'brood_'
'NT_'
'reproduced_'
'tension_'
'Gardens_'
'Medical_'
'theatrical_'
'360_'
'tolerable_'
'Phillips_'
'á_'
'insolence_'
'deception_'
'Foster_'
'scout_'
'Polish_'
'Police_'
'312_'
'Tales_'
'strains_'
'shifted_'
'rowed_'
'mathematical_'
'stalk_'
'citadel_'
'stretches_'
'Cynthia_'
'flavor_'
'Help_'
'trades_'
'appalling_'
'veritable_'
'cleaned_'
'Nero_'
'quam_'
'developing_'
'peer_'
'Madison_'
'armor_'
'ONS_'
'Newcastle_'
'Beneath_'
'cords_'
', § _'
'regularity_'
'murmuring_'
'Normandy_'
'architectural_'
'cot_'
'Rich_'
'Honour_'
'index_'
'Oswald_'
'Hume_'
'shivered_'
'exclaiming_'
'authentic_'
'309_'
'cement_'
'accorded_'
'313_'
'interrupt_'
'Dieu_'
'Charleston_'
'tout_'
'\u" _'
'rusty_'
'?’ _'
'311_'
'omit_'
'noticeable_'
'Hart_'
'assemble_'
'pinch_'
'vase_'
'308_'
'draft_'
'fountains_'
'dissolution_'
'Ere_'
'XXIV_'
'Amongst_'
'whirled_'
'grassy_'
'plump_'
'salts_'
'dealings_'
'f'
'Room_'
'wick_'
'Mercury_'
'Horn_'
'Tale_'
'302_'
'mastery_'
'Cæsar_'
'frowned_'
'imaginative_'
'strewn_'
'colleagues_'
'benches_'
'tested_'
'inadequate_'
'boss_'
'safer_'
'factories_'
'!... _'
'1828_'
'supports_'
'deserts_'
'wrung_'
'Forty_'
'journals_'
'intrigue_'
'pecuniary_'
'grieve_'
'poorer_'
'canals_'
'sided_'
'thar_'
'imminent_'
'offences_'
'candidates_'
'wells_'
'Deity_'
'traps_'
'thereon_'
'Save_'
'nurses_'
'aw_'
'Renaissance_'
'adored_'
'battalions_'
'oppressive_'
'urn_'
'coincidence_'
'ola_'
'Fletcher_'
'regain_'
'glove_'
'Kant_'
'consulting_'
'posture_'
'bo_'
'ī_'
'deficient_'
'Sire_'
'nursing_'
'Senor_'
'mont_'
'etext_'
'ied_'
'humane_'
'presentation_'
'Cor_'
'fearless_'
'counsels_'
'phases_'
'pirate_'
'investigate_'
'MISS_'
'H'
'ua_'
'peering_'
'impose_'
'Marjorie_'
'masts_'
'involuntary_'
'floors_'
'composer_'
'ich_'
'Durham_'
'Canon_'
'Irishman_'
'----" _'
'Somerset_'
'relied_'
'conscientious_'
'wrinkled_'
'pools_'
'baffled_'
'Artillery_'
'constrained_'
'partake_'
'apostle_'
'314_'
'operated_'
'Knights_'
'wipe_'
'maternal_'
'decks_'
'acquisition_'
'establishments_'
'Sundays_'
'Eight_'
'Cleveland_'
'Pasha_'
'harmonious_'
'bordered_'
'Niagara_'
'occurring_'
'connections_'
'vexation_'
'improving_'
'jelly_'
'indirectly_'
'extremities_'
'Fancy_'
'verily_'
'rabbits_'
'headache_'
'OUR_'
'1831_'
'deliberation_'
'rattling_'
'asunder_'
'dinners_'
'inherent_'
'ardour_'
'                                          _'
'trifles_'
'1910_'
'mathematics_'
'Arts_'
'SECOND_'
'Bedford_'
'petals_'
'witty_'
'inventions_'
'informs_'
'frankness_'
'vividly_'
'Fine_'
'ters_'
'Coming_'
'fathoms_'
'defenders_'
'yne_'
'disciple_'
'slim_'
'Short_'
'Railroad_'
'idiot_'
'instruct_'
'regardless_'
'EL_'
'slices_'
'beggars_'
'haunt_'
'steer_'
'patterns_'
'expanded_'
'alternate_'
'blooming_'
'sez_'
'340_'
'reversed_'
'1s_'
'cushions_'
'discussions_'
'.). _'
'oaks_'
''._'
'profess_'
'resolutely_'
'railroads_'
'edly_'
'Bobby_'
'curate_'
'involves_'
'defy_'
'enmity_'
'calculations_'
'Z'
'accents_'
'fullest_'
'321_'
'â_'
'decorations_'
'eleventh_'
' `_'
'avenge_'
'conducting_'
'abominable_'
'dungeon_'
'spines_'
'frequented_'
'feebly_'
'conceit_'
'rogue_'
'furnishes_'
'abbey_'
'unkind_'
'mockery_'
'mists_'
'Walpole_'
'Account_'
'vanquished_'
'minority_'
'improper_'
'gallantry_'
'Officers_'
'multitudes_'
'amateur_'
'Mohammed_'
'graciously_'
'Sancho_'
'subsistence_'
'fasten_'
'ancestor_'
'flattery_'
'Isaiah_'
'religions_'
'emancipation_'
'creating_'
'comparing_'
'Nonsense_'
'imparted_'
'temptations_'
'Nell_'
'schoolmaster_'
'moods_'
'buck_'
'accessible_'
'ruddy_'
'wasting_'
'bi_'
'nets_'
'marshal_'
'cher_'
'Kit_'
'governing_'
'coldness_'
'wherewith_'
'inspiring_'
'priesthood_'
'tempting_'
'Olive_'
'toilet_'
'yields_'
'IE_'
'1833_'
'tempt_'
'monopoly_'
'engaging_'
'1914_'
'hooks_'
'duchess_'
'organisation_'
'counts_'
'Open_'
'fights_'
'Armstrong_'
'Buckingham_'
'sneer_'
'V'
'sweetheart_'
'butterfly_'
'cleaning_'
'Iroquois_'
'DAY_'
'persecuted_'
'paced_'
'iers_'
'Printed_'
'differed_'
'museum_'
'llo_'
'chuckled_'
'vastly_'
'operating_'
'burns_'
'unlikely_'
'blended_'
'erroneous_'
'grinding_'
'boon_'
'uproar_'
'mentioning_'
'Turn_'
'ras_'
'towering_'
'histories_'
'councils_'
'Yesterday_'
'reluctant_'
'differing_'
'heroism_'
'flashes_'
'marking_'
'excuses_'
'Editor_'
'adherents_'
'vnto_'
'colossal_'
'vanish_'
'NOT_'
'dawned_'
'hillside_'
'seals_'
'Maid_'
'ferocious_'
'316_'
'Arch_'
'placid_'
'issuing_'
'whistled_'
'sickly_'
'capitals_'
'Nora_'
'Belgian_'
'escapes_'
'imitated_'
'behavior_'
'bake_'
'whispers_'
'prevents_'
'Swedish_'
'Farm_'
'Buddha_'
'openings_'
'Montgomery_'
'Versailles_'
'318_'
'SS_'
'defective_'
'biting_'
'atoms_'
'Cotton_'
'Case_'
'custody_'
'ordeal_'
'STORY_'
'mend_'
'exploits_'
'standpoint_'
'declining_'
'aching_'
'NS_'
'teachings_'
'Ship_'
': (_'
'hardest_'
'Browne_'
'Malcolm_'
'butt_'
'fuss_'
'frames_'
'Arctic_'
'screaming_'
'=--_'
'royalty_'
'Frau_'
'tar_'
'       |_'
'carelessness_'
'EY_'
'brightened_'
'Wind_'
'reef_'
'l'
'cation_'
'καὶ_'
'ose_'
'calmness_'
'Stevens_'
'impelled_'
'stump_'
'Reginald_'
'LAND_'
'twigs_'
'sentenced_'
'Humphrey_'
'peas_'
'rite_'
'gal_'
'glaring_'
'snap_'
'3s_'
'inferred_'
'decrees_'
'baths_'
'Bless_'
'rung_'
'retaining_'
'holder_'
'elbows_'
'—“_'
'handy_'
'shrieked_'
'cherry_'
'beaver_'
'presided_'
'imperative_'
'celebrate_'
'Snow_'
'whirling_'
'317_'
'fringe_'
'drown_'
'biggest_'
'wills_'
'smoothly_'
'meditation_'
'Nations_'
'és_'
'r'
'irony_'
'reliable_'
'Highland_'
'adventurers_'
'Sioux_'
'independently_'
'betrothed_'
'arrayed_'
'Genoa_'
'treats_'
'das_'
'pastoral_'
'admirers_'
'ο'
'trod_'
'Executive_'
'nuns_'
'Scarcely_'
'Glory_'
'Chevalier_'
'324_'
'legged_'
'announcing_'
'Evening_'
'Adrian_'
'sixpence_'
'Tennyson_'
'modification_'
'trumpets_'
'Athenian_'
'mice_'
'protector_'
'impending_'
'facilities_'
'ET_'
'                                           _'
'ara_'
'distinguishing_'
'alighted_'
'banners_'
'Late_'
'chocolate_'
'birch_'
'needles_'
'heading_'
'#, _'
'lers_'
'intervening_'
'Iowa_'
'prophetic_'
'advent_'
'Marguerite_'
'Ill_'
'supplying_'
'Andrews_'
'Liberal_'
'hushed_'
'muttering_'
'emblem_'
'commotion_'
'unmistakable_'
'Pliny_'
'folding_'
'clapped_'
'abuses_'
'soaked_'
'GOD_'
'sterling_'
'tta_'
'sprinkled_'
'Nick_'
'laboured_'
'Diego_'
'Cameron_'
'dreamy_'
'courageous_'
'forefathers_'
'chairman_'
'theft_'
'Bart_'
'radiance_'
'dominant_'
'potato_'
'Danes_'
'1813_'
'timidly_'
'revolving_'
'sufferer_'
'ROBERT_'
'signals_'
'Poet_'
'Rosa_'
'sleeps_'
'exclude_'
'rug_'
'hir_'
'Bengal_'
'Bot_'
'diary_'
'ped_'
'326_'
'ield_'
'heiress_'
'contemptuous_'
'discomfort_'
'swearing_'
'Political_'
'prevails_'
'gait_'
'insanity_'
'Cause_'
'paved_'
'slippers_'
'Show_'
'Jo_'
'exposition_'
'ini_'
'Calcutta_'
'thrilled_'
'floods_'
'celebration_'
'Hampton_'
'Naturally_'
'Harper_'
'amply_'
'Barry_'
'embodied_'
'Around_'
'Buffalo_'
'contracts_'
'sham_'
'inability_'
'muffled_'
'implored_'
'aisle_'
'naughty_'
'sculptor_'
'noises_'
'sow_'
'ethical_'
'accursed_'
'ging_'
'recollected_'
'horribly_'
'disgraceful_'
'uncovered_'
'sus_'
'deals_'
'\\ _'
'329_'
'scented_'
's'
'laborers_'
'depot_'
'futile_'
'recess_'
'322_'
'preachers_'
'purposely_'
'Priest_'
'variable_'
'333_'
'iniquity_'
'rewards_'
'ivy_'
'redemption_'
'apprehend_'
'Mormon_'
'ski_'
'mercury_'
'hesitating_'
'GE_'
'spider_'
'entreat_'
'Th_'
'ures_'
'planning_'
'teaspoonful_'
'Sovereign_'
'enraged_'
'healed_'
'eur_'
'328_'
'quiver_'
'cigars_'
'restaurant_'
'arouse_'
'overtake_'
'relatively_'
'tactics_'
'mused_'
'satisfactorily_'
'factors_'
'electrical_'
'exhibiting_'
'Hundred_'
'wage_'
'ludicrous_'
'ility_'
'319_'
'moustache_'
'pigeons_'
'faction_'
'Social_'
'dictated_'
'conformity_'
'stooping_'
'princely_'
'YOUNG_'
'absorbing_'
'creative_'
'undone_'
'm'
'rustling_'
'afresh_'
'blades_'
'Harvard_'
'W'
'Translated_'
'predecessor_'
'antagonist_'
'dispatch_'
'outlet_'
'civilised_'
'Hiram_'
'drug_'
'warmer_'
'bearded_'
'dazed_'
'comprehended_'
'Exchange_'
'CHAP_'
'caravan_'
'extant_'
'Wherever_'
'scaffold_'
'cupboard_'
'comin_'
'posterior_'
'furs_'
'Independence_'
'Collins_'
'scruples_'
'glowed_'
'filthy_'
'brightest_'
'Non_'
'Louisa_'
'frog_'
'governors_'
'337_'
'swarm_'
'geese_'
'mates_'
'Adelaide_'
'323_'
'rebuke_'
'malignant_'
'Lay_'
'nightfall_'
'imp_'
'breeds_'
'nesse_'
'apparition_'
'Character_'
'climax_'
'lass_'
'successes_'
'Oil_'
'Eric_'
'Frederic_'
'els_'
'weights_'
'prone_'
'.  “_'
'appealing_'
'Rocky_'
'Forgive_'
'335_'
'lone_'
'frenzy_'
'reigns_'
'horseman_'
'1827_'
'xvi_'
'Amsterdam_'
': '
'cherish_'
'Birmingham_'
'DELTA_'
'po_'
'fainted_'
'repulsed_'
'monotony_'
'ransom_'
'penance_'
'yearning_'
'fervent_'
'virtually_'
'Occasionally_'
'sic_'
'dye_'
'TY_'
'tumbling_'
'Suffolk_'
'scrap_'
'barons_'
'1825_'
'cedar_'
'mourn_'
'indescribable_'
'risks_'
'nia_'
'chaos_'
'profusion_'
'blazed_'
'sentry_'
'meek_'
'bids_'
'fuller_'
'ratio_'
'core_'
'Internet_'
'System_'
'wanton_'
'ert_'
'shields_'
'excitedly_'
'dar_'
'327_'
'crumbs_'
'misty_'
'Peel_'
'.)]_'
'su_'
'committing_'
'Dictionary_'
'bearers_'
'   |  _'
'pausing_'
'furnishing_'
'   |   _'
'sliding_'
'incline_'
'Talbot_'
'menace_'
'Believe_'
'x'
'ferry_'
' ..._'
'anticipate_'
'Orders_'
'muskets_'
'malady_'
'adverse_'
'links_'
'astray_'
'Crawford_'
'¶_'
'corporation_'
'despotism_'
'copyright_'
'wines_'
'certificate_'
'industries_'
'observance_'
'R'
'!"--_'
'Norton_'
'axes_'
'vpon_'
'reed_'
'profane_'
'dad_'
'mortification_'
'exaggeration_'
'Jeremiah_'
'Anything_'
'regulate_'
'Outside_'
'insure_'
'paddle_'
'recesses_'
'concession_'
'Market_'
'332_'
'shoots_'
'.'
'Moor_'
'cowardice_'
'conquerors_'
'chum_'
'asserts_'
'excursions_'
'Raphael_'
'rebellious_'
'witches_'
'Sheridan_'
'Hubert_'
'flavour_'
'conical_'
'usefulness_'
'proposals_'
'1809_'
'ark_'
'solicitude_'
'showers_'
'lifeless_'
'muslin_'
'Persons_'
'singers_'
'crouched_'
'                                            _'
'Pharaoh_'
'bowels_'
'Dover_'
'roasted_'
'invaders_'
'drawers_'
'Sixth_'
'bust_'
'strenuous_'
'automobile_'
'wot_'
'conspirators_'
'literal_'
'straining_'
'haggard_'
'magazines_'
'Reverend_'
'Rochester_'
'Exeter_'
'partners_'
'annum_'
',” “_'
'resented_'
'avowed_'
'lamented_'
'affording_'
'adorn_'
'Achilles_'
'originality_'
'conservative_'
'diversion_'
'vigilance_'
'charging_'
'Portland_'
'folio_'
'suburbs_'
'oats_'
'surplus_'
'mythology_'
'Ted_'
'Madonna_'
'alms_'
'deities_'
'revolutions_'
'Messiah_'
'Harding_'
'amounting_'
'Ex_'
'Angelo_'
'joyfully_'
'[)_'
'idols_'
'Rule_'
'greedy_'
'cone_'
'fearfully_'
'murderers_'
'tremulous_'
'decreed_'
'raged_'
'shiver_'
'haze_'
'\u? _'
'Blair_'
'twentieth_'
'sagacity_'
'shutting_'
'mixing_'
'employing_'
'MARY_'
'Nos_'
'Hyde_'
'ily_'
'Hindu_'
'kes_'
'Admiralty_'
'wearily_'
'Jake_'
'sighing_'
'yarn_'
'porcelain_'
'intrigues_'
'reinforcements_'
'hedges_'
'seclusion_'
'mat_'
'heretics_'
'clutched_'
'cheaper_'
'bearings_'
'reproduction_'
'item_'
'unfinished_'
'favours_'
'Alabama_'
'chemistry_'
'revive_'
'swaying_'
'overtaken_'
'val_'
'Literary_'
'Derby_'
'prisons_'
'suffers_'
'fondness_'
'Essay_'
'F'
'damaged_'
'Presbyterian_'
'stunned_'
'Continental_'
'throats_'
'331_'
'uneasily_'
'pitied_'
'congenial_'
'dan_'
'theatres_'
'politician_'
'ked_'
' --_'
'stimulus_'
'marches_'
'howl_'
'WAR_'
'Stories_'
'curses_'
'clasping_'
'Poetry_'
'outburst_'
'Fisher_'
'scratch_'
'stalks_'
'shepherds_'
'Otto_'
'puzzle_'
'Figure_'
',\u_'
'] “_'
'fibres_'
'nasty_'
'loosely_'
'escorted_'
'ws_'
'accompaniment_'
'kinsman_'
','
'fainting_'
'DASIA_'
'Philippe_'
'noses_'
'Antwerp_'
'allude_'
'stakes_'
'footed_'
'weaving_'
'enterprises_'
'perspiration_'
'define_'
'manifestations_'
'wretches_'
'penalties_'
'knitting_'
'Addison_'
'veneration_'
'obstinacy_'
'martyrs_'
'blest_'
'manifold_'
'nne_'
'WHAT_'
'bamboo_'
'impetuous_'
'Clinton_'
'conversations_'
'seaman_'
'incorporated_'
'conversing_'
'tenor_'
'detain_'
'candid_'
'ees_'
'Finding_'
'stoop_'
'fading_'
'deepened_'
'daresay_'
'barber_'
'crawl_'
'hoisted_'
'essays_'
'mortality_'
'alterations_'
'Whoever_'
'refreshed_'
'interpret_'
'ards_'
'XXV_'
'suggesting_'
'Zoöl_'
'1819_'
'minimum_'
'comments_'
'Foot_'
'statistics_'
'cheat_'
'Zeus_'
'animation_'
'explore_'
'Flowers_'
'Henderson_'
'slice_'
'separating_'
'fascinated_'
'clan_'
'altars_'
'supporters_'
'Plutarch_'
'Meg_'
'elections_'
'strait_'
'advocates_'
'volley_'
'glacier_'
'Ministry_'
'e'
'console_'
'reverend_'
'336_'
'Eng_'
'Bohemia_'
'departing_'
'shocking_'
'.”  _'
'cooling_'
'caring_'
'mounds_'
'mingling_'
'onions_'
'fol_'
'geography_'
'23rd_'
'grated_'
'conveyance_'
'apprehensions_'
'rents_'
'audacity_'
'Hooker_'
'untouched_'
'gallows_'
'twin_'
'commodities_'
'slippery_'
'papal_'
'chateau_'
'medal_'
'Ulysses_'
'Cyril_'
'psychological_'
'bucket_'
'Hello_'
'availed_'
'Moorish_'
'Knox_'
'bein_'
'communicating_'
'dissatisfied_'
'delegates_'
'wildest_'
'spun_'
'Hills_'
'wanderings_'
'pioneer_'
'whiskey_'
'reliance_'
'Trent_'
'nourishment_'
'Return_'
'turkey_'
'tiresome_'
'Schools_'
'scrutiny_'
'battered_'
'ents_'
'Left_'
'package_'
'idly_'
'renounce_'
'voyages_'
'marshes_'
'butterflies_'
'adventurous_'
'summits_'
'habitually_'
'scrape_'
'bounty_'
'31st_'
'assistants_'
'necessaries_'
'inexplicable_'
'conceivable_'
'serpents_'
'frowning_'
'Attorney_'
'kins_'
'walled_'
'footman_'
'professions_'
'hull_'
'depicted_'
'isle_'
'345_'
'frivolous_'
'Enough_'
'sta_'
'sledge_'
'ars_'
'aloof_'
'geological_'
'commend_'
'silenced_'
'encampment_'
'Hebrews_'
'Pretty_'
'actress_'
'Parisian_'
'languid_'
'                                             _'
'semblance_'
'rainbow_'
'1793_'
'verb_'
'emotional_'
'role_'
'Brunswick_'
'forwarded_'
'Honor_'
'agin_'
'Czar_'
'watered_'
'luxuries_'
'Force_'
'thigh_'
'Irving_'
'1817_'
'Throughout_'
'Eva_'
'reveals_'
'punch_'
'plausible_'
'334_'
'maturity_'
'Je_'
'shipped_'
'ence_'
'Girls_'
'--'
'necklace_'
'sparks_'
'impracticable_'
'fees_'
'338_'
'Thought_'
'impartial_'
'chi_'
'zinc_'
'] [_'
'Athenians_'
' ~_'
'tasks_'
'dispatched_'
'Juliet_'
'befallen_'
'abdomen_'
'flown_'
'collision_'
'straightway_'
'riders_'
'handsomely_'
'hates_'
'planks_'
'accumulation_'
'fluttered_'
'thermometer_'
'Clerk_'
'Raleigh_'
'avec_'
'forbidding_'
'med_'
'magical_'
'toss_'
'Daughter_'
'medicines_'
'maxim_'
'whiteness_'
'min_'
'drained_'
'sqq_'
'fertility_'
'sinks_'
'adore_'
'Tristram_'
'Judas_'
'ita_'
'oysters_'
'        |_'
'comply_'
'heal_'
'clouded_'
'irons_'
'bayonet_'
'apparel_'
'carving_'
'brooding_'
'areas_'
'masonry_'
'commended_'
'Slowly_'
'Val_'
'veranda_'
'inwardly_'
'sans_'
'miseries_'
'1911_'
'Leigh_'
'sparkled_'
'reducing_'
'Tory_'
'Might_'
'Trust_'
'Superior_'
'Churches_'
'tur_'
'clerical_'
'monsters_'
'cloths_'
'fade_'
'alley_'
'trampled_'
'initial_'
'concentration_'
'Beautiful_'
'wards_'
'Lizzie_'
'exquisitely_'
'grate_'
'glistening_'
'." [_'
'exit_'
'periodical_'
'builders_'
'Progress_'
'inhabit_'
'complaining_'
'blackness_'
'Wisconsin_'
'1824_'
'Reform_'
'farthest_'
'enriched_'
'similarity_'
'afloat_'
'Augusta_'
'* * * * *_'
'humming_'
'Eternal_'
'exclusion_'
'Same_'
'subjection_'
'precipitate_'
'ines_'
'relic_'
'Reading_'
'Fifty_'
'overlooking_'
'broader_'
'tackle_'
'prohibition_'
'amiss_'
'foreseen_'
'Dawson_'
'unquestionably_'
'modifications_'
'contemptible_'
'Clifford_'
'eness_'
'341_'
'Made_'
'hive_'
'Collection_'
'scratched_'
'intimated_'
'Bailey_'
'Sons_'
'granting_'
'bon_'
'bas_'
'consistency_'
'THIS_'
'Cold_'
'torrents_'
'richness_'
'Vera_'
'rattled_'
'Colonies_'
'plunging_'
'succeeds_'
'Gallery_'
'discord_'
'pebbles_'
'347_'
'thronged_'
'"  _'
'Origin_'
'cricket_'
'clusters_'
'boom_'
').]_'
'tas_'
'ensure_'
'TER_'
'Marlborough_'
'possessor_'
'dingy_'
'339_'
'.\u "_'
'overtook_'
'oftener_'
'physically_'
'conclusive_'
'osa_'
'liberality_'
'Bombay_'
'toys_'
' ("_'
'abbot_'
'sanguine_'
'crowding_'
'laboratory_'
'parchment_'
'gem_'
'fiend_'
'redeemed_'
'explored_'
'supervision_'
'dwells_'
'conquests_'
'wedded_'
'witchcraft_'
'ingredients_'
'ano_'
'jack_'
'intricate_'
'wares_'
'heating_'
'Jamaica_'
'Marsh_'
'economical_'
'Francesco_'
'Syn_'
'grouped_'
'    | _'
'Curtis_'
'wholesale_'
'365_'
'quickened_'
'gratifying_'
'chaps_'
'Sebastian_'
'loosened_'
'lar_'
'Index_'
'Mexicans_'
'composing_'
'adieu_'
'baking_'
'verbal_'
'gliding_'
'depending_'
'wn_'
'mustered_'
'glimpses_'
'martyrdom_'
'suppression_'
'gentry_'
'uniformly_'
'galloping_'
'workmanship_'
'phantom_'
'oblivion_'
'inflict_'
'registered_'
'classed_'
'Titus_'
'revenues_'
'legions_'
'Health_'
'pottery_'
'lash_'
'ome_'
'glee_'
'excessively_'
'galley_'
'wouldst_'
'vers_'
'Vicar_'
'Bess_'
'muzzle_'
'client_'
'International_'
'raid_'
'+ _'
'Gibraltar_'
'Whereupon_'
'precepts_'
'trodden_'
'Reynolds_'
'h'
'sion_'
'livery_'
'k'
'descendant_'
'unanimous_'
'follies_'
'crystals_'
'cork_'
'Hungarian_'
'fists_'
'375_'
'incomprehensible_'
'disk_'
'stimulated_'
'Ball_'
'hues_'
'monkeys_'
'deputies_'
'achieve_'
'narrowly_'
'intuition_'
'circulated_'
'booty_'
'collector_'
'affects_'
'incomplete_'
'.\u"_'
'nae_'
'contended_'
'haul_'
'Party_'
'áre_'
'bundles_'
') "_'
'decorative_'
'powerfully_'
'devour_'
'groans_'
'quivered_'
'snug_'
'shrinking_'
'450_'
'tests_'
'discreet_'
'Northumberland_'
'soothe_'
'lament_'
'noiselessly_'
'ean_'
'mainland_'
'Chambers_'
'construct_'
'drowning_'
'Sing_'
'Prior_'
'1811_'
'residing_'
'realization_'
'evolved_'
'repairs_'
'overflowing_'
'rendezvous_'
'mastered_'
'lining_'
'flanks_'
'extensively_'
'Simpson_'
'blacksmith_'
'rigging_'
'camped_'
'signified_'
'withstand_'
'etiquette_'
'murderous_'
'tumble_'
'statutes_'
'marvelous_'
'lui_'
'Fritz_'
'sweeter_'
'providence_'
'transverse_'
'stall_'
'Slave_'
'342_'
'jam_'
' +_'
'22nd_'
'whirl_'
'coaches_'
'chooses_'
'fried_'
'shutters_'
'ica_'
'ias_'
'346_'
'pits_'
'Devonshire_'
'raises_'
'Plain_'
'['_'
'vel_'
'texts_'
'Rom_'
'plots_'
'figs_'
'Dark_'
'lowly_'
'hens_'
'omen_'
':'
'Seville_'
'Prime_'
'fo_'
'festivals_'
'Hark_'
'rocking_'
'Colony_'
'Passing_'
'cushion_'
'343_'
'comme_'
'blindness_'
'lanes_'
'chart_'
'Methodist_'
'closes_'
'Portrait_'
'unnoticed_'
'Puritan_'
'chattering_'
'Penn_'
'philosophic_'
'fa_'
'limitations_'
'Freedom_'
'privileged_'
'commencing_'
'flannel_'
'Madge_'
'Sacred_'
'                                              _'
'assisting_'
'informing_'
'ordinance_'
'directors_'
'berth_'
'357_'
'dispositions_'
'publishers_'
'distorted_'
'operator_'
'Surrey_'
'missions_'
'spiral_'
'contemptuously_'
'355_'
'sanctity_'
'pitcher_'
'via_'
'dismiss_'
'Nine_'
'kneel_'
'entreaties_'
'corresponds_'
'?\u_'
'converts_'
'353_'
'Farmer_'
'Irene_'
'qualifications_'
'ensuing_'
'waits_'
'sia_'
'. "\u_'
'ghostly_'
'grants_'
'brotherhood_'
'wronged_'
'laughs_'
'wink_'
'sentinel_'
'Preston_'
'ITS_'
'choking_'
'visibly_'
'alight_'
'Evil_'
').--_'
'intrusted_'
'Carthage_'
'Cincinnati_'
'348_'
'robust_'
'compounds_'
'\\_'
'ered_'
'identify_'
'staid_'
'assuring_'
'gly_'
'bully_'
'deficiency_'
'blindly_'
'Essays_'
'1816_'
'sufficed_'
'averted_'
'1810_'
'xx_'
'della_'
'speechless_'
'pastures_'
'evinced_'
'Lancashire_'
'repast_'
'anecdotes_'
'superstitions_'
'decisions_'
'nationality_'
'Seymour_'
'guinea_'
'w'
'lengths_'
'contending_'
'conceded_'
'rin_'
'pursuers_'
'inspector_'
'361_'
'Bertram_'
'ums_'
'perch_'
'patriots_'
'devise_'
'forsake_'
'felicity_'
'"._'
'prettiest_'
'unsatisfactory_'
'blackened_'
'1807_'
'smothered_'
'leur_'
'recreation_'
'reproaches_'
'woodland_'
'scruple_'
'nun_'
'foster_'
'; -- _'
'------------------------------------------------------------------------_'
'Whig_'
'--“_'
'Sophy_'
'cleft_'
'Punch_'
'crews_'
'contention_'
'Hanover_'
'1818_'
'Miriam_'
'beware_'
'colleague_'
'baronet_'
'preparatory_'
'344_'
'sojourn_'
'gratefully_'
'proximity_'
'acquiring_'
'Gentiles_'
'loop_'
'Lastly_'
'Villa_'
'Barton_'
'biography_'
'1806_'
'organisms_'
'poultry_'
'Question_'
', '
'manufacturers_'
'lashes_'
'grasses_'
'fortitude_'
'Chap_'
'serviceable_'
'aperture_'
'351_'
'sie_'
'Denis_'
'Boer_'
'discontented_'
'370_'
'Barnes_'
'junior_'
'challenged_'
'Wisdom_'
'――_'
'pans_'
'{ _'
'invent_'
'shewed_'
'involving_'
'stung_'
'nursed_'
'cloister_'
'1789_'
'throbbing_'
'WAS_'
'mingle_'
'insurance_'
'fanciful_'
'ibid_'
'View_'
'watering_'
'plundered_'
'lashed_'
'Shaw_'
'Beside_'
'observers_'
'lasts_'
'morally_'
'Heavens_'
'guiding_'
'Officer_'
'Courts_'
'costumes_'
'drivers_'
'streak_'
'dell_'
'complied_'
'Leipzig_'
'hym_'
'publishing_'
'LES_'
'Greene_'
'sporting_'
'greenish_'
'handing_'
'Kensington_'
'tire_'
'peasantry_'
'dissolve_'
'1826_'
'random_'
'luxuriant_'
'Below_'
'speculative_'
'precedent_'
'aggregate_'
'tides_'
'procuring_'
'Epistle_'
'creditors_'
'inflamed_'
'puff_'
'Medici_'
'Charity_'
'correction_'
'Herod_'
'ceremonial_'
'sch_'
'burying_'
'blunt_'
'Buck_'
'latent_'
'bass_'
'adversaries_'
'conversed_'
'assailants_'
'reforms_'
'softer_'
'+ =_'
'specified_'
'labored_'
'accomplishments_'
'preferable_'
'349_'
'graduated_'
'354_'
'unchanged_'
'isolation_'
'gi_'
'352_'
'parapet_'
'lurking_'
'expects_'
'Maxwell_'
'dice_'
'Cornelius_'
'digestion_'
'twins_'
'desperation_'
'1776_'
'sometime_'
'unmarried_'
'madman_'
'Shepherd_'
'aire_'
'emphatic_'
'woollen_'
'snatch_'
'invaluable_'
'indirect_'
'!\u" _'
'diffused_'
'Coventry_'
'gy_'
'Beethoven_'
'grinning_'
'Pike_'
'quotes_'
'fin_'
'quarry_'
'span_'
'surf_'
'Portsmouth_'
'380_'
'Masters_'
'applications_'
'1915_'
'ρ'
'steering_'
'356_'
'status_'
'presses_'
'allusions_'
'watery_'
'volunteer_'
'subterranean_'
'bases_'
'KEY_'
'publications_'
'linked_'
'villagers_'
'Joel_'
'compliance_'
'XXVI_'
'uniformity_'
'barking_'
'Copyright_'
'jet_'
'displaying_'
'Boswell_'
'j'
'conveying_'
'claiming_'
'bolts_'
'slips_'
'dart_'
'), "_'
'Grande_'
'parliamentary_'
'Merry_'
'cooled_'
'; '
''\u_'
'eats_'
'Born_'
'hastening_'
'onto_'
'recalling_'
'Herodotus_'
'diverted_'
'revealing_'
'exultation_'
'364_'
'Ain_'
'                                               _'
'secluded_'
'madly_'
'stays_'
'imperious_'
'whereon_'
'oxide_'
'oracle_'
'labouring_'
'trustworthy_'
'crawling_'
'tormented_'
'limp_'
'conquering_'
'a'
'Hannibal_'
'beckoned_'
'partition_'
'subscription_'
'revelations_'
'magnet_'
'maritime_'
'Play_'
'Meeting_'
'│ _'
'diligently_'
'flooded_'
'liar_'
'Cleopatra_'
'rowing_'
'gunpowder_'
'commonwealth_'
'roadside_'
'ban_'
'combatants_'
'         |_'
']; _'
'Sheriff_'
'Bert_'
'annexed_'
';"_'
'fringed_'
'resisting_'
'peach_'
'pathway_'
'tinged_'
'peopled_'
'dyed_'
'Damascus_'
'sponge_'
'thicker_'
'bert_'
'Austrians_'
'rus_'
'.\u (\u_'
'particle_'
'('
'Ring_'
'Richardson_'
'EDWARD_'
'1912_'
'Sin_'
'vacation_'
'manifestly_'
'unspeakable_'
'predicted_'
'Ella_'
'oneself_'
'impenetrable_'
'Description_'
'. {_'
'epic_'
'Herald_'
'Bourbon_'
'1805_'
'infallible_'
'Cora_'
'monasteries_'
'Whence_'
'shirts_'
'ignore_'
'ushered_'
'delirium_'
'Sussex_'
'Panama_'
'ores_'
'Nellie_'
'concealing_'
'besought_'
'Kelly_'
'Hardly_'
'Conference_'
'.\u; _'
'Nina_'
'huddled_'
'urg_'
'lan_'
'exclaim_'
'tha_'
'controlling_'
'Phoebe_'
'Following_'
'revised_'
'tense_'
'helpful_'
'crisp_'
'sap_'
'epistle_'
'Colonial_'
'whiskers_'
'moth_'
'bloodshed_'
'rhythm_'
'illumination_'
'Lorraine_'
'foreman_'
'Sara_'
'Watch_'
'grudge_'
'cks_'
'Berkeley_'
'Bad_'
'jars_'
'sequence_'
'monthly_'
'canopy_'
'bolted_'
'ARE_'
']--_'
'temperance_'
'infants_'
'spreads_'
'inflammation_'
'│  _'
'ella_'
'grades_'
'cies_'
'tinge_'
'Noble_'
'agrees_'
'Present_'
'Mitchell_'
'obscured_'
'): _'
'rumour_'
'List_'
'Jimmie_'
'listener_'
'absorption_'
'Josiah_'
'zo_'
'freezing_'
'1780_'
'pierce_'
'Lowell_'
'stumbling_'
'equilibrium_'
'substantially_'
'caprice_'
'kicking_'
'Gospels_'
'Arabia_'
'stein_'
'Chase_'
'administer_'
'equals_'
'stronghold_'
'Spenser_'
'straightened_'
'rebuilt_'
',(_'
'Off_'
'unanimously_'
'dge_'
']-_'
'Silas_'
'ths_'
'scant_'
'queried_'
'.” “_'
'infected_'
'lease_'
'lark_'
'cloudy_'
'   '
'customer_'
'files_'
'Lisbon_'
'womanhood_'
'flattened_'
'Hard_'
'Assyrian_'
'embraces_'
'fibre_'
'fences_'
'knave_'
'affinity_'
'Rector_'
'i'
'Stevenson_'
'ious_'
'hovering_'
'boar_'
'abiding_'
'flutter_'
'diligent_'
'reap_'
'cheery_'
'deceit_'
'Sand_'
'Corn_'
'1821_'
'chant_'
'hypocrisy_'
'mas_'
'hardship_'
'manure_'
'graphic_'
'locomotive_'
'volunteered_'
'ino_'
'decayed_'
'Hale_'
'Eye_'
'stalls_'
'ob_'
'assemblage_'
'Institution_'
'wail_'
'rot_'
'Declaration_'
'spit_'
'Nova_'
'100'
'jo_'
'testified_'
'lon_'
'Tea_'
'Fellow_'
'! '_'
'sayings_'
'pernicious_'
'intimation_'
'softness_'
'reformation_'
'359_'
'zi_'
'stitch_'
'rivalry_'
'labourer_'
'Quaker_'
'bitten_'
'believers_'
'prowess_'
'ankle_'
'respond_'
'reporter_'
'twisting_'
'juncture_'
'pike_'
'manual_'
'Carlos_'
'misunderstood_'
'anus_'
'violets_'
'cruise_'
'idolatry_'
'alphabet_'
'Thomson_'
'Isles_'
'endeavoring_'
'affirmative_'
'selfe_'
'emigrants_'
'envied_'
'LOVE_'
'displays_'
'tory_'
'brace_'
'Corporal_'
'sects_'
'itch_'
'builder_'
'Democratic_'
'reproached_'
'meagre_'
'Bee_'
'ene_'
'contrivance_'
'stupidity_'
'oid_'
'novelist_'
'adoration_'
'Lionel_'
'hardness_'
'Nathan_'
'Katharine_'
'yng_'
'Somehow_'
' ('
'occurrences_'
'Macaulay_'
'Brutus_'
'employers_'
'Vane_'
'Allies_'
'impertinent_'
'restoring_'
'restrictions_'
'flowering_'
'Across_'
'gases_'
'1822_'
'gaunt_'
'Address_'
'inter_'
'cabbage_'
'Jonson_'
'Commonwealth_'
'demonstrate_'
'Bismarck_'
'forbear_'
'translations_'
'constituents_'
'í_'
'stifled_'
'squirrel_'
'countryman_'
'beaming_'
'Michel_'
'358_'
'Speaker_'
'divert_'
'Seth_'
'cavalier_'
'waggon_'
'flute_'
'units_'
'fs_'
'NESS_'
'imperfectly_'
'bleak_'
'Aside_'
'conveniently_'
'uppermost_'
'1808_'
'Parson_'
'indifferently_'
'benefactor_'
'continuation_'
'Perry_'
'traitors_'
'installed_'
'cycle_'
'contradict_'
'1803_'
'items_'
'wiping_'
'obliging_'
'Eustace_'
'violated_'
'corrupted_'
'1792_'
'flask_'
'uplifted_'
'dealers_'
'vocation_'
'miserably_'
'nis_'
'pestilence_'
'divides_'
'\u-_'
'plight_'
'feasts_'
'dancers_'
'copious_'
'heaving_'
'HOME_'
'embassy_'
'DR_'
'muster_'
' {~_'
'unimportant_'
'owns_'
'Text_'
'attired_'
'swine_'
'soundly_'
'thrusting_'
'smelling_'
'sample_'
'stationary_'
'disgraced_'
'adventurer_'
'Matter_'
'Oscar_'
'overpowered_'
'ress_'
'oes_'
'adjustment_'
'arduous_'
'Business_'
'subdue_'
'styles_'
'turbulent_'
'overcoat_'
'.       _'
'Bishops_'
'starch_'
'realities_'
'stroll_'
'servitude_'
'cholera_'
'chained_'
'Baldwin_'
'leadership_'
'Making_'
'blocked_'
'nucleus_'
'Excuse_'
'postage_'
'sane_'
'Saxony_'
'NA_'
'ibus_'
'biscuit_'
'turtle_'
'noting_'
'adaptation_'
'paler_'
'keel_'
'scare_'
'stupendous_'
'Wentworth_'
'Salem_'
'Newport_'
'Manuel_'
'Forbes_'
'pallid_'
'constancy_'
'legally_'
'unheard_'
'peers_'
'mightily_'
'contradictory_'
'Reuben_'
',    _'
'apex_'
'XXVII_'
'FORD_'
'reputed_'
'overhanging_'
'! \u_'
'leapt_'
'favors_'
'!) _'
'hamlet_'
'glossy_'
'Study_'
'Sparta_'
'."--"_'
'handles_'
'smith_'
'azure_'
'Oak_'
'altitude_'
' │_'
'KE_'
'sordid_'
'Conrad_'
'.  [_'
'pillows_'
'organised_'
'Seneca_'
'Exeunt_'
'Anyhow_'
'363_'
'Colin_'
'dares_'
'gowns_'
'soften_'
'Patience_'
'Exactly_'
'perusal_'
'universities_'
'!\u_'
'kai_'
'clump_'
'Potomac_'
'demeanour_'
'Mortimer_'
'therewith_'
'sses_'
'Keith_'
'scrambled_'
'clatter_'
'κ'
'Osborne_'
'bang_'
'terrestrial_'
'Lambert_'
'1775_'
'Somebody_'
'Clive_'
'Charlemagne_'
'Jr_'
'diplomacy_'
'ides_'
'doubting_'
'appointments_'
'DW18_'
'bureau_'
'transports_'
'quotations_'
'gasp_'
'Cortes_'
'Twice_'
'tre_'
'sunken_'
'Mills_'
'Highlanders_'
'loom_'
'vehement_'
'sandstone_'
'WOOD_'
'entangled_'
'wand_'
'Amelia_'
'                                                _'
'1823_'
'joins_'
'seriousness_'
'guardians_'
'glen_'
'damn_'
'tablet_'
'hairy_'
'provoke_'
'brake_'
'enterprising_'
'Friedrich_'
'grease_'
'"    _'
'fiddle_'
'suspension_'
'scornful_'
'chatter_'
'Larry_'
'vehemence_'
'outlook_'
'Leaves_'
'mornings_'
'discerned_'
'lessness_'
'HAM_'
'retains_'
'ein_'
'busied_'
'taller_'
'ag_'
'lids_'
'bravest_'
'Locke_'
'inconvenient_'
'curling_'
'brilliantly_'
'negotiation_'
'superseded_'
'experimental_'
'assign_'
'prominence_'
'extremes_'
'infection_'
'Voyage_'
'halting_'
'embroidery_'
'Knowledge_'
' “\u_'
'gar_'
'fossil_'
'bridal_'
'romances_'
'continental_'
'.  \u_'
'surviving_'
'Halifax_'
'bough_'
'wailing_'
'Constable_'
'Dresden_'
'Baby_'
'bles_'
'oni_'
'nn_'
'blunder_'
'peeped_'
'insulting_'
'ged_'
'strung_'
'knowest_'
'chilled_'
'federal_'
'exploded_'
'contentment_'
'Sullivan_'
'preserves_'
'metaphysical_'
'practiced_'
'amber_'
'insults_'
'ngly_'
'Deep_'
'morsel_'
'Goldsmith_'
'scatter_'
'pores_'
'laurel_'
'Zion_'
'pail_'
'Babylonian_'
'northwest_'
'ort_'
'grievances_'
'affectation_'
'bower_'
'barge_'
'Timothy_'
'descends_'
'366_'
'diminution_'
'savagely_'
'cubic_'
'commandant_'
'Chamberlain_'
'362_'
'expulsion_'
'Rousseau_'
'stag_'
'decency_'
'believer_'
'disinterested_'
'contemplating_'
'nightly_'
'ritual_'
'onion_'
'impudent_'
'invincible_'
'Special_'
'385_'
'triple_'
'responsibilities_'
'”; _'
'pilgrim_'
'beneficent_'
'Melbourne_'
'Standing_'
'Instantly_'
'distressing_'
'smashed_'
'valid_'
'nailed_'
'3'
'390_'
'moan_'
'dit_'
'. $_'
'heaved_'
'PREFACE_'
'accommodate_'
'timbers_'
'Jeff_'
'Affairs_'
'regrets_'
'craving_'
'snows_'
'holders_'
'bard_'
'rapids_'
'Carey_'
'Parliamentary_'
'transmission_'
'emperors_'
'Viscount_'
'Corinth_'
'percentage_'
'avarice_'
'crouching_'
'367_'
'polish_'
'ape_'
'wardrobe_'
'crowning_'
'inaccessible_'
'Religious_'
'psychology_'
'woes_'
'Pompey_'
'AUTHOR_'
'369_'
'overcame_'
'leaden_'
'lavish_'
'remembers_'
'piston_'
'salon_'
'recital_'
'ferns_'
'xix_'
'rotation_'
'chaste_'
'forenoon_'
'Calvin_'
'peacefully_'
'wager_'
'ani_'
'377_'
'flights_'
'Reed_'
'Otherwise_'
'valor_'
'learns_'
'Secret_'
'dot_'
'OUS_'
'Figs_'
'Owing_'
'comprised_'
'Re_'
'pardoned_'
'smoothed_'
'recompense_'
'Published_'
'vocal_'
'Cologne_'
'dexterity_'
'multiply_'
'diseased_'
'spade_'
'MEN_'
'ura_'
'friar_'
'envious_'
'harshly_'
'guarding_'
'fared_'
'chloride_'
'ammonia_'
'objectionable_'
'unmoved_'
'partnership_'
'outskirts_'
'germs_'
'= (\u_'
'grumbled_'
'engrossed_'
'traverse_'
'traveler_'
'primarily_'
'368_'
'γ'
'olden_'
'banish_'
'rugs_'
'premature_'
'SMITH_'
'Angela_'
'simpler_'
'commences_'
'Stafford_'
'Dar'
'inseparable_'
'st'
'Expedition_'
'Ray_'
'poorly_'
'Privy_'
'thoughtless_'
'sculptured_'
'vest_'
'midday_'
'ik_'
'Robertson_'
'bayonets_'
'descriptive_'
'curly_'
'GAMMA_'
'scrub_'
'streamed_'
'hog_'
'deplorable_'
'Monk_'
'Ï'
'Bartholomew_'
'Genesis_'
'Class_'
'unintelligible_'
'scornfully_'
'contraction_'
'target_'
'& _'
'enjoys_'
'feats_'
'ills_'
'Der'
'commandment_'
'chilly_'
'Fitz_'
'kills_'
'hereby_'
'disappears_'
'striped_'
'interrupting_'
'faintest_'
'CHURCH_'
'Peninsula_'
'forged_'
'teams_'
'investment_'
'fleets_'
'Principles_'
'superiors_'
'exercising_'
'perspective_'
'whereabouts_'
'redeem_'
'nominal_'
'manned_'
'congress_'
'loading_'
'Nelly_'
''"_'
'exposing_'
'fatigued_'
'spire_'
'spin_'
'repute_'
'hotly_'
'4'
'vo_'
'," \u_'
'perfected_'
'Person_'
'Francois_'
'Israelites_'
'ming_'
'coloring_'
'tipped_'
'sacrificing_'
'1913_'
'gr_'
'Provinces_'
'1790_'
'Battalion_'
'delivering_'
'campaigns_'
'coupled_'
'ngton_'
'forks_'
'receiver_'
'ponderous_'
'een_'
'permits_'
'splendidly_'
'Mahomet_'
'condensed_'
'Missionary_'
'wistful_'
'WASHINGTON_'
'receipts_'
'doin_'
'tapped_'
'pacing_'
'admirer_'
'Claire_'
'magician_'
'innate_'
'rally_'
'implore_'
'fry_'
'tors_'
'diversity_'
'brim_'
'protracted_'
'heather_'
'contrive_'
'Inspector_'
'. -- _'
'undoubted_'
'ving_'
'bathe_'
'jerk_'
'Preface_'
'ramparts_'
'panel_'
'aries_'
'Por'
'Danube_'
'Flower_'
'repaid_'
'Hen_'
'guise_'
'embryo_'
'Fuller_'
'vie_'
'severed_'
'paw_'
'lookin_'
'Broadway_'
'journeyed_'
'Knowing_'
'plum_'
'ury_'
'discarded_'
'Alma_'
'tack_'
'omission_'
'Fields_'
'conform_'
'vehemently_'
'dos_'
'Youth_'
'Mozart_'
'envoy_'
'Treasurer_'
'Sue_'
'371_'
'singly_'
'fern_'
'anonymous_'
'iz_'
'stairway_'
'offense_'
'org_'
'imaginable_'
'Guide_'
'peaceable_'
'treasurer_'
'ingratitude_'
'Crow_'
'xviii_'
'chimneys_'
'astronomy_'
'Malay_'
'shaggy_'
'monastic_'
'gall_'
'zes_'
'sous_'
'feeds_'
'recruits_'
'notably_'
'Q'
'hon_'
'Shirley_'
'] '_'
'dearer_'
'casts_'
'avert_'
'tracing_'
'tucked_'
'Toledo_'
'momentous_'
'foaming_'
'bulls_'
'1794_'
'straggling_'
'enlarge_'
'sceptre_'
'Brooklyn_'
'postponed_'
'distribute_'
'wins_'
'credited_'
'tissues_'
'taxed_'
'Brooke_'
'lied_'
'Middleton_'
'chronic_'
'378_'
'adopting_'
'petitions_'
'moderately_'
'broom_'
'Ronald_'
'overlook_'
'Parts_'
'rained_'
'Abel_'
'SECTION_'
'assassin_'
'unbounded_'
'selecting_'
'DW7_'
'Carlo_'
'disgusting_'
'X'
'abject_'
'vehicles_'
'lessened_'
'ARD_'
'zer_'
'fait_'
'despatches_'
'1798_'
'travelers_'
'commandments_'
' ---- _'
'tal_'
'redress_'
'oranges_'
'numberless_'
'Kingston_'
'Rouen_'
'373_'
'Springs_'
'worshippers_'
'rallied_'
'372_'
'Mlle_'
'Conquest_'
'remonstrance_'
'separates_'
'replying_'
'failures_'
'Picture_'
'smitten_'
'conflicting_'
'Bavaria_'
'lessen_'
'overthrown_'
'vogue_'
'ambitions_'
'\u'_'
'plumes_'
'mountainous_'
'Marseilles_'
'crafty_'
'---_'
'candy_'
'Bureau_'
'confide_'
'374_'
'heartless_'
'splash_'
'Arkansas_'
'recited_'
'cabins_'
'steered_'
'fleeting_'
'undue_'
'albeit_'
'shun_'
'foresee_'
'reigning_'
'galleys_'
'epidemic_'
'ese_'
'sharing_'
'convicts_'
'ony_'
'Standard_'
'Main_'
'Fruit_'
'defences_'
'Armenian_'
'Manor_'
'garret_'
'Whigs_'
'Hare_'
','" _'
'shortest_'
'crippled_'
'16mo_'
'engravings_'
'concludes_'
'unaccountable_'
'anniversary_'
'Jules_'
'broth_'
'terminal_'
'stiffly_'
'populous_'
'mellow_'
'soothed_'
'pore_'
'Row_'
'modestly_'
'bursts_'
'residents_'
'pox_'
'lens_'
'Histoire_'
'jug_'
'gallantly_'
'trusty_'
'—— _'
'Sleep_'
'exasperated_'
'famed_'
'ceaseless_'
'hy_'
'agreeably_'
'376_'
'satisfying_'
'drowsy_'
'Peters_'
'visage_'
'ancestral_'
'mutually_'
'glitter_'
'impudence_'
'Honourable_'
'unfair_'
'cleanliness_'
'Franks_'
'ode_'
'mademoiselle_'
'bays_'
'whitish_'
'downfall_'
'ardor_'
'boarded_'
'Mon_'
'xvii_'
'Past_'
'agencies_'
'-, _'
'Minnesota_'
'owne_'
'coated_'
'SO'
'repulsive_'
'congratulated_'
'asserting_'
'Scot_'
'cylindrical_'
'ric_'
'aria_'
'α_'
'Rebecca_'
'victor_'
'mechanics_'
'Erasmus_'
'assemblies_'
'Heath_'
'mystical_'
'scarcity_'
'Aurora_'
'enquired_'
'elm_'
'Greenland_'
'pyramid_'
'Steele_'
'supposes_'
'jerked_'
'disturbances_'
'withheld_'
'longitude_'
'disappearing_'
'                                                 _'
'truthful_'
'translate_'
'dreamt_'
'calamities_'
'Fraser_'
'willed_'
'Hamburg_'
'wistfully_'
'fitness_'
'defiant_'
'panels_'
'appellation_'
'wretchedness_'
'Rice_'
'slab_'
'consume_'
'Thebes_'
'adhered_'
'realizing_'
'rave_'
'Beaumont_'
'384_'
'disclose_'
'395_'
'persist_'
'obsolete_'
'Lafayette_'
'mutiny_'
'1804_'
'subjective_'
'Henrietta_'
'Cherry_'
'Dennis_'
'," &_'
'railing_'
'Percival_'
'chasm_'
'actively_'
'ade_'
'lity_'
'weighty_'
'uniforms_'
'sinned_'
'mm_'
'ig_'
'baker_'
'Dost_'
'ethics_'
'beginnings_'
'É'
'Hetty_'
'Speaking_'
'    '
'resent_'
'examinations_'
'torpedo_'
'spheres_'
'quartered_'
'381_'
'Staff_'
'skilfully_'
'nook_'
'Paine_'
'Apparently_'
'invitations_'
'dragoons_'
'renewal_'
'μ'
'befall_'
'forcible_'
'bidden_'
'snare_'
'reasoned_'
'uniting_'
'pulp_'
'Elector_'
'nameless_'
'Village_'
'stability_'
'oyster_'
'filed_'
'toils_'
'mane_'
'executioner_'
'provides_'
'hurst_'
'Palmerston_'
'420_'
'RED_'
'-----_'
'matron_'
'THREE_'
'ownership_'
'reverie_'
'lifts_'
'shrunk_'
'pondered_'
'1783_'
'nuisance_'
'extinction_'
'Elijah_'
'Singh_'
'Keats_'
'ordinances_'
'inexhaustible_'
'Glass_'
'Bohemian_'
'ferocity_'
'Original_'
'hop_'
'commissioner_'
'sacrament_'
'fated_'
'387_'
'lawless_'
'disabled_'
'vivacity_'
'physiological_'
'sloop_'
'Abe_'
'ruinous_'
'abnormal_'
'Iliad_'
'WELL_'
'λ'
'Detroit_'
'clover_'
'troopers_'
'abandonment_'
'DW36_'
''."_'
'Newman_'
'379_'
'football_'
'shrieks_'
'.\u'
'tyrants_'
'Nice_'
'Supper_'
'triangular_'
'frogs_'
'Popular_'
'editors_'
'compartment_'
'intoxicated_'
'aright_'
'beech_'
'Priscilla_'
'doubtfully_'
'bounding_'
'swamps_'
'drunkenness_'
'retort_'
'decrease_'
'proposes_'
'offender_'
'Bow_'
'!" "_'
'thro_'
'piteous_'
'shewn_'
'toiled_'
'nces_'
'chaise_'
'405_'
'selves_'
'lookout_'
'XXVIII_'
'Louvre_'
'Savoy_'
'Clarendon_'
'survivors_'
'atom_'
'curl_'
'Perkins_'
'prophecies_'
'hose_'
'bewilderment_'
'Rhode_'
'Brittany_'
'precipitous_'
'coronation_'
'BLE_'
'ε'
'township_'
'Benedict_'
'dazzled_'
'serenity_'
'Travels_'
'Hawk_'
'acquitted_'
'eventful_'
'410_'
'misunderstanding_'
' |    _'
'congratulations_'
'? \u_'
'wavering_'
'Commodore_'
'denote_'
'Prescott_'
'ugh_'
'brazen_'
'Welcome_'
'sley_'
'oy_'
'bach_'
'fairer_'
'badge_'
'trough_'
'anatomy_'
'Bologna_'
'applauded_'
'lambs_'
'quitting_'
'Norwegian_'
'exempt_'
'earning_'
'1802_'
'Wise_'
'thundering_'
'solace_'
' '\u_'
'var_'
'Greenwich_'
'unscrupulous_'
'aggressive_'
'inclinations_'
'enjoined_'
'ating_'
'playful_'
'Munich_'
'Shah_'
'"   _'
'valves_'
'explicit_'
'Stanton_'
'civility_'
'comer_'
'401_'
'prized_'
'.\u,_'
'Amos_'
'punishments_'
'Ham_'
'liness_'
'Woods_'
'Real_'
'sill_'
'illusions_'
'][_'
'5s_'
'patrol_'
'maintains_'
'Britons_'
'salutation_'
'sales_'
'grounded_'
'aisles_'
'INGS_'
'rout_'
'vis_'
'trailing_'
'α'
'syrup_'
'adhere_'
'Brian_'
'minutely_'
'forthcoming_'
'fetters_'
'unfolded_'
'inhabitant_'
'frontiers_'
'Frontispiece_'
'groaning_'
'dispense_'
'Rabbit_'
'Native_'
'Ontario_'
'sulphate_'
'shakes_'
'encircled_'
'FIELD_'
'Craig_'
'denotes_'
'chivalrous_'
'nin_'
'liberally_'
'Aubrey_'
'Alpine_'
'Straits_'
'Ferry_'
'camping_'
'Mont_'
'Geo_'
'Commerce_'
'enumerated_'
'wad_'
'efficacy_'
'sheds_'
'parsley_'
'blooded_'
'Hath_'
'Carlisle_'
'variously_'
'wrists_'
'patrons_'
'hurricane_'
'frequency_'
'illa_'
'com_'
'\u—_'
'Naval_'
'dissipated_'
'Medicine_'
'moulded_'
'concessions_'
'averse_'
'steadfast_'
'millionaire_'
'abreast_'
'gripped_'
', -_'
'augmented_'
'orchards_'
'cocoa_'
'Frankfort_'
'Calais_'
'steamboat_'
'Kirk_'
'willows_'
'Grove_'
',' '_'
'30'
'deuce_'
'coveted_'
'permitting_'
'fashions_'
'Jose_'
'trait_'
'paws_'
'Ceylon_'
'monarchs_'
'fasting_'
'damages_'
'nominated_'
'383_'
'acids_'
'abstraction_'
'squeezed_'
'scrupulous_'
'methinks_'
'assurances_'
'WHICH_'
'inspect_'
'voting_'
'appetites_'
'Va_'
'womanly_'
'illustrates_'
'atonement_'
'Berry_'
'gloomily_'
'eck_'
'Harley_'
'feigned_'
'Southampton_'
'Flemish_'
'inherit_'
'\u '
'Toronto_'
'tti_'
'recognizing_'
'intrusion_'
'Deacon_'
'indulgent_'
'ena_'
'carpets_'
'attainment_'
'Sisters_'
'BU'
'inconceivable_'
'commissions_'
'Capital_'
'Richelieu_'
'trotted_'
'RICHARD_'
'386_'
'Wine_'
'Joyce_'
'Psalm_'
'chapels_'
'reappeared_'
'developments_'
'strap_'
'dorsal_'
'billows_'
'mit_'
'disregarded_'
'Pine_'
'Willis_'
'Rights_'
'tariff_'
'twinkle_'
'Gibson_'
'remnants_'
'quoting_'
'Ptolemy_'
'brutes_'
'Plates_'
'Carson_'
'flinging_'
'Lives_'
'exploration_'
'pens_'
'Catalogue_'
'fied_'
'cape_'
'\u, "_'
'tributary_'
'Catharine_'
'Guinea_'
'ev_'
'defendant_'
'speakers_'
'plaintive_'
'indistinct_'
'ois_'
'393_'
'compelling_'
'ari_'
'darkest_'
'utensils_'
'raiment_'
'; ‘_'
'starboard_'
'389_'
'Hitherto_'
'sumptuous_'
'earnings_'
'soiled_'
'impunity_'
'verdure_'
'wreaths_'
'stoutly_'
'lieu_'
'hissing_'
'Buchanan_'
'ap_'
'ng'
'volcano_'
'reformed_'
'consummate_'
'highness_'
'heath_'
'defied_'
'banishment_'
'Evan_'
'tortures_'
'routes_'
'devouring_'
'Granada_'
'.*_'
'limitation_'
'picnic_'
'Strand_'
'1796_'
'392_'
'blockade_'
'Brighton_'
'pra'
'Sharp_'
'Gradually_'
'AMERICAN_'
'mysteriously_'
'hus_'
'arc_'
'Got_'
'gravy_'
'gallons_'
'1801_'
'officially_'
'boulders_'
'Minnie_'
'destroys_'
'arena_'
'stanza_'
'kinder_'
'deciding_'
'sweeps_'
'ele'
'pat_'
'grazing_'
'epithet_'
'scattering_'
'demonstrations_'
'—\u_'
'pangs_'
'glide_'
'Lyon_'
'tying_'
'scraps_'
'1797_'
'breakers_'
'Vatican_'
'Macdonald_'
'tapestry_'
'parched_'
'forfeited_'
'ä_'
'tiles_'
'Alex_'
'.—"_'
'tokens_'
'mis_'
'comet_'
'Tartar_'
'immoral_'
'spine_'
'patted_'
'Change_'
'precarious_'
'Length_'
'handkerchiefs_'
'Diary_'
'sarcasm_'
'naturalist_'
'continuously_'
'yells_'
'vaulted_'
'senator_'
'poisoning_'
'Christine_'
'lovingly_'
'convulsions_'
'Chopin_'
'unclean_'
'calculate_'
'IAN_'
'382_'
'friars_'
', {_'
'1'
'391_'
'.' \u_'
'crater_'
'Viceroy_'
'Lectures_'
'415_'
'assassination_'
'canons_'
'Judges_'
'vested_'
'musing_'
'raven_'
'388_'
'unaccustomed_'
'requesting_'
'Lat_'
'vapor_'
'waggons_'
'triangle_'
'hindered_'
'confound_'
'stride_'
'bel_'
'Sandwich_'
'Chatham_'
'heightened_'
'£_'
'sable_'
'Christina_'
'pioneers_'
'NOTES_'
'tonight_'
'Kaiser_'
'peeping_'
'inquisitive_'
'\u'
'. . . . _'
'piazza_'
'ching_'
'shouldered_'
'|     _'
'thundered_'
'ait_'
'hoarsely_'
'Agatha_'
'mutilated_'
'fray_'
'diminishing_'
'DON_'
'Annual_'
'density_'
'THETA_'
'glared_'
'cursing_'
'tinted_'
'brownish_'
'Powell_'
'toll_'
'Talk_'
'motioned_'
'submerged_'
'anarchy_'
'salutary_'
'\u, &_'
'pollen_'
'Florentine_'
'Churchill_'
'thickets_'
'neutrality_'
'ENT_'
'quarrelled_'
'Moral_'
'Passion_'
':\u _'
'terminate_'
'penitent_'
'cocked_'
'cia_'
'august_'
'Article_'
'Vivian_'
'manufacturer_'
'Returning_'
'managing_'
'--(_'
'pavilion_'
'Sumner_'
'moaned_'
'Cato_'
'obeying_'
'inexperienced_'
'ENGLISH_'
'inmost_'
'hart_'
'Eyes_'
'una_'
'dissatisfaction_'
'timidity_'
'combining_'
'presumably_'
'routed_'
'oratory_'
'Pratt_'
'willingness_'
'sequel_'
'disc_'
'OTHER_'
'Drummond_'
'repairing_'
'laboring_'
'instrumental_'
'freshly_'
'Ind_'
'uncommonly_'
'livelihood_'
'unaware_'
'Monroe_'
'Joy_'
'Best_'
'ically_'
'XXIX_'
'film_'
'decked_'
'.. _'
'sae_'
'widows_'
'cessation_'
'salad_'
'diverse_'
'32'
'excepted_'
'----'_'
'Gay_'
'tablets_'
'maple_'
'comers_'
'ncy_'
'lances_'
'edict_'
'mosque_'
'Minerva_'
'Breton_'
'stew_'
'steeds_'
'Bread_'
'Sc_'
'studded_'
'masterpiece_'
'bordering_'
'camera_'
'attic_'
'Gaston_'
'sultan_'
'farce_'
'masterly_'
'initiated_'
'comely_'
'checks_'
'tia_'
'helplessly_'
'                                                  _'
'eclipse_'
'Ezra_'
'Maker_'
'pained_'
'hollows_'
'Seventh_'
'pastime_'
'convex_'
'>. _'
'Hopkins_'
'Animals_'
'poorest_'
'Item_'
'Ambrose_'
'Sugar_'
'profile_'
'correctness_'
'Swan_'
'breezes_'
'steaming_'
'nal_'
'LS_'
'corpses_'
'ceasing_'
'Care_'
'purchases_'
'humiliating_'
'embark_'
'downright_'
'unfavourable_'
'logy_'
'parrot_'
'durst_'
'twig_'
'horrified_'
'giddy_'
'unjustly_'
'promontory_'
'insurgents_'
'squeeze_'
'cartridges_'
'WHITE_'
'strengthening_'
'twain_'
'bequeathed_'
'reproduce_'
'entertainments_'
'easiest_'
'confines_'
'ND_'
'Samson_'
'remarking_'
'Written_'
'emerge_'
'sparrow_'
'outlined_'
'practising_'
'scarf_'
'greed_'
'Ridge_'
'barriers_'
'gaping_'
'mortgage_'
'blinds_'
'suspecting_'
'persistently_'
'drugs_'
'saturated_'
'glimmer_'
'sportsman_'
'chums_'
'zy_'
'managers_'
'beholding_'
'Walton_'
':[_'
'lanterns_'
'Protestantism_'
'Map_'
'ILLUSTRATIONS_'
'zu_'
'loveliest_'
'framework_'
'dogma_'
'ravages_'
'Ada_'
'comforting_'
'Ant_'
'394_'
'cleverly_'
'Olaf_'
'diocese_'
'Judy_'
'Wayne_'
'rds_'
'scandalous_'
'strikingly_'
'carbonic_'
'Med_'
'dere_'
'Trans_'
'Romance_'
'grating_'
'mildly_'
'consoled_'
'murmurs_'
'barbarism_'
'sont_'
'sash_'
'Tories_'
'396_'
'cle_'
'Maitland_'
'Siberia_'
'ult_'
'sup_'
'rightful_'
'apiece_'
'Poets_'
'Glen'
'disasters_'
'Papal_'
'eternally_'
'Harrington_'
'foretold_'
'comical_'
'Walla_'
'402_'
'unwelcome_'
'WE_'
'tennis_'
'indefinitely_'
'spoonful_'
'amended_'
'palpable_'
'1778_'
'excesses_'
'Pilgrim_'
'ok_'
'399_'
'transient_'
'ret_'
'mornin_'
'bony_'
'reminiscences_'
'meekly_'
'importation_'
'calendar_'
'forgets_'
'withdrawal_'
'angular_'
'rian_'
'festivities_'
'chop_'
'ART_'
'BOY_'
'pies_'
'Speech_'
'canyon_'
'ph_'
'scourge_'
'sacks_'
'repented_'
'Bradford_'
'Castile_'
'403_'
'slower_'
'Pur'
'injunction_'
'prestige_'
'neared_'
'exploring_'
'clustered_'
'slaughtered_'
'SEA_'
'knowed_'
'winters_'
'tolerated_'
'licence_'
'apprentice_'
'West'
'sulphuric_'
'rue_'
'prerogative_'
'Ib_'
'Madras_'
'ι_'
'~}_'
'alacrity_'
'atrocious_'
'XXX_'
'Markham_'
'DEATH_'
'397_'
'Montague_'
'zo'
'payments_'
'Dona_'
'ven_'
'Language_'
'shaven_'
'leafy_'
'quay_'
'sted_'
'starry_'
'insists_'
'Wesley_'
'surveying_'
'unarmed_'
'lengthened_'
'Steel_'
'Coffee_'
'intends_'
'whim_'
'omnibus_'
'theoretical_'
'meanest_'
'dough_'
'therefrom_'
'glands_'
'Sel'
'Highlands_'
'curb_'
'1799_'
'Jason_'
'colder_'
'spruce_'
'Assyria_'
'Restoration_'
'mercantile_'
'hing_'
'avenues_'
'bribe_'
'QUEEN_'
'latch_'
'havoc_'
'dia_'
'Sierra_'
'Rise_'
'. &_'
'foresight_'
'lick_'
'fraction_'
'Drury_'
'Marco_'
'è_'
'tug_'
'Administration_'
'sanctioned_'
'ati'
'Plan_'
'!'"_'
'Qq_'
'variance_'
'”—_'
'Barclay_'
'131'
'Betsy_'
'Cal_'
'Aberdeen_'
'trance_'
'carrier_'
'unselfish_'
'Vermont_'
'radius_'
'Articles_'
'Scotia_'
'trips_'
'lessly_'
'pregnant_'
'ousness_'
'detection_'
'Gibbon_'
'mien_'
'chieftain_'
'inspected_'
'contingent_'
'Booth_'
'indulging_'
'Buenos_'
'430_'
'leaps_'
'Kenneth_'
'desertion_'
'squadrons_'
'purified_'
'murders_'
'miller_'
'timely_'
'Neptune_'
'Bertie_'
'disordered_'
'segments_'
'2000_'
'meridian_'
'sufferers_'
'Cupid_'
'equalled_'
'nightmare_'
'ique_'
'Yard_'
'rer_'
'pear_'
'outraged_'
'gout_'
'degenerate_'
'withdrawing_'
'Putnam_'
'capricious_'
'stalwart_'
'miner_'
'Range_'
'purer_'
'Mala'
'recording_'
'404_'
'intoxication_'
'Baxter_'
'pinched_'
'Judaism_'
'mais_'
'cheque_'
'Milly_'
'THEIR_'
'utterances_'
'rne_'
'glorified_'
'Champlain_'
'annoy_'
'courteously_'
'partisans_'
'hovered_'
'illegal_'
'bled_'
'En_'
'reprinted_'
'An'
'denies_'
'verandah_'
'considerate_'
'sensual_'
'ballads_'
'Walk_'
'Cloud_'
'1782_'
'divined_'
'dispensation_'
'Dragon_'
'finite_'
'407_'
'Terry_'
'repress_'
'gayly_'
'Kur'
'398_'
'28'
'Form_'
'cheated_'
'408_'
'carbonate_'
'Scene_'
'Mix_'
'Songs_'
'glittered_'
'sieve_'
'nomination_'
'Benson_'
'Judgment_'
'deposed_'
'puffed_'
'Java_'
'Chris_'
'savings_'
'indefatigable_'
'patriarch_'
'deferred_'
'sman_'
'sentinels_'
'coils_'
'ched_'
'Everywhere_'
'pounded_'
'flickering_'
'ā_'
'exiled_'
'infamy_'
'409_'
'territorial_'
'legacy_'
'heritage_'
'facilitate_'
'Archibald_'
'moaning_'
'collapse_'
'annoying_'
'Adieu_'
'NCE_'
'hysterical_'
'saddles_'
'Philippines_'
'paltry_'
'Utah_'
'riddle_'
'intact_'
'ead_'
'comprising_'
'merciless_'
'foresaw_'
'412_'
'1795_'
'pus_'
'lard_'
'Wilton_'
'wrap_'
'crucified_'
'Bradley_'
'Jonas_'
'meditated_'
'nda_'
'homestead_'
'exacting_'
'prefers_'
'theologians_'
'shrub_'
'southwest_'
'solicitor_'
'muse_'
'chests_'
'stale_'
'yan_'
'Battery_'
'fervently_'
'prairies_'
'Bruno_'
'bombardment_'
'Malta_'
'Face_'
'Antioch_'
'hips_'
'mahogany_'
'calves_'
'Jenkins_'
'insert_'
'gauge_'
'Penelope_'
'Madeleine_'
'cracks_'
'sparkle_'
'fy_'
'Hurrah_'
'Records_'
'Lib_'
'planes_'
'meddle_'
'Wilhelm_'
'earthen_'
'walnut_'
'parishes_'
'Nurse_'
'."—\u_'
'meter_'
'forgetfulness_'
'wert_'
'rumours_'
'criticisms_'
'\u.[_'
'youngster_'
'J'
'ndo_'
'Formerly_'
'stamping_'
'Seine_'
'chemist_'
'Saturn_'
'narrower_'
'loft_'
'founders_'
'bs_'
'wanderer_'
'obliterated_'
'immovable_'
'potash_'
'eruption_'
'drapery_'
'Living_'
'Building_'
'scalp_'
'crows_'
'Un_'
'-+_'
'detested_'
'terraces_'
'disorders_'
'harassed_'
'."(_'
'resounded_'
'realms_'
'nap_'
'strand_'
'lles_'
'vaults_'
'ebb_'
'Female_'
'waxed_'
'interminable_'
'catches_'
'Maximilian_'
'grind_'
'sketched_'
'myths_'
'Cruz_'
'25'
'girlish_'
'Newfoundland_'
'swan_'
'xxii_'
'convoy_'
'aerial_'
'caress_'
'vely_'
'maxims_'
'Lancelot_'
'pinned_'
'rustle_'
'rhetoric_'
'sneered_'
'estimates_'
'initials_'
'grub_'
'onwards_'
'precipitated_'
'lunatic_'
'proportioned_'
'anxieties_'
'reservation_'
'Rest_'
'=._'
'Carr_'
'ν'
'intruder_'
'abounds_'
'Loch_'
'yore_'
'athletic_'
'Virtue_'
'hatchet_'
',      _'
'enchanting_'
'chancellor_'
'Thornton_'
'Mollie_'
'Æ_'
'mourned_'
'illustrating_'
'succour_'
'Moslem_'
'1791_'
'growl_'
'”--_'
'sheath_'
'Ne_'
'Franz_'
'Bella_'
'ids_'
'weave_'
'torments_'
'417_'
'Rajah_'
'bladder_'
'unsettled_'
'MAY_'
'pallor_'
'oli_'
'rake_'
'cooks_'
'expiration_'
'Woe_'
'φ'
'Bud_'
'Syrian_'
'shedding_'
'revolted_'
'rabble_'
'OE_'
'Bates_'
'darting_'
'orbit_'
'xxi_'
'Lead_'
'Concord_'
'tablespoonful_'
'pensive_'
'toleration_'
'mite_'
'crumbling_'
'fret_'
'emerald_'
'Nightingale_'
'Brandon_'
'440_'
'Capitol_'
'theater_'
'acquaint_'
'swarming_'
'panes_'
'Came_'
'frying_'
'bushels_'
'yelling_'
'policemen_'
'austere_'
'Soldiers_'
'wilful_'
'Prussians_'
'stitches_'
'forfeit_'
'barbarian_'
'Launcelot_'
'Double_'
'ditto_'
'Alaska_'
'yed_'
'Barney_'
'Ara'
'syllables_'
'destinies_'
'betraying_'
'transmit_'
'combustion_'
'406_'
'dle_'
'pedestal_'
'Salle_'
'Los_'
'indictment_'
'polar_'
'dwellers_'
'emigration_'
'Reader_'
'1787_'
'indolent_'
'auld_'
'relieving_'
'q'
'Sur'
'provoking_'
'abandoning_'
'Hague_'
'Dalton_'
'proposing_'
'101'
'precincts_'
'416_'
'| '
'gny_'
'rejection_'
'Savannah_'
'Confederacy_'
'oblique_'
'Eliot_'
'Caleb_'
'Byzantine_'
'Ph_'
'fabulous_'
'dryly_'
'1781_'
'strides_'
'microscope_'
'liquors_'
'skirmish_'
'atmospheric_'
'pea_'
'Germain_'
'Erie_'
'silks_'
'Jay_'
'significantly_'
'clergymen_'
'assertions_'
'mended_'
'herb_'
'downcast_'
'triumphed_'
'scar_'
'tete_'
'lightness_'
'wary_'
'feathered_'
'cynical_'
'Whereas_'
'Says_'
'sche_'
'WAY_'
'Murphy_'
'SERIES_'
'mustard_'
'ais_'
'spouse_'
'Stock_'
'mirrors_'
'befell_'
'advertised_'
'underlying_'
'verified_'
'impassable_'
'reassured_'
'ji_'
'Fly_'
'disobedience_'
'Weston_'
'Diamond_'
'Springfield_'
'dizzy_'
'Nar'
'cope_'
'midway_'
'aeroplane_'
'advocated_'
'stabbed_'
'ambush_'
'enchantment_'
'uns_'
'greasy_'
'musketry_'
'audacious_'
'ized_'
'invariable_'
'reminding_'
'weel_'
'py_'
'liberated_'
'Hull_'
'ace_'
'ARY_'
'Macbeth_'
'bowls_'
'Pearl_'
'Barker_'
'investigated_'
'archers_'
'Out'
'diminutive_'
'vineyards_'
'unhappily_'
'shovel_'
'bomb_'
'INDEX_'
'Dad_'
'AE'
'AGE_'
'Talleyrand_'
'Hawkins_'
'rascals_'
'invade_'
'Victory_'
'Survey_'
'purchasing_'
'fortresses_'
'untrue_'
'mal_'
'425_'
'hatch_'
'ong_'
'menacing_'
'actuated_'
'REV_'
'respectability_'
'?... _'
'reptiles_'
'impulsive_'
'repel_'
'herald_'
'halves_'
'Follow_'
'INE_'
'entreaty_'
'|'
'Monthly_'
'skinned_'
',)_'
'MAR'
'roam_'
'Verily_'
'Beauchamp_'
'stra'
'correspondents_'
'ð_'
'Drawing_'
'clothe_'
'greetings_'
'411_'
'dolls_'
'cove_'
'Mohammedan_'
'Der_'
'Æ'
'ballot_'
'strayed_'
'Quakers_'
'closest_'
'Newgate_'
'feasting_'
'empress_'
'farthing_'
'grievance_'
'forbearance_'
'unwonted_'
'clamour_'
'ruffian_'
'aut_'
'Elias_'
'panted_'
'exclamations_'
'scissors_'
'perceptions_'
'ETC_'
'unlocked_'
'miscellaneous_'
'orth_'
'straits_'
'nas_'
'credulity_'
'Member_'
'Superintendent_'
'straightforward_'
'pe'
'gaol_'
'Pius_'
'cing_'
'scholarship_'
'derision_'
'Cain_'
'somethin_'
'proffered_'
'naming_'
'rupture_'
'dum_'
'hewn_'
'Course_'
'lonesome_'
'Confederates_'
'caresses_'
'gipsy_'
'!’_'
'rust_'
'nourished_'
'effectively_'
'accusations_'
'5'
'bends_'
'Pierce_'
'womb_'
'Innocent_'
'Bennett_'
'herein_'
'Teutonic_'
'quickness_'
'distilled_'
'ata'
'focus_'
'approximately_'
'exceptionally_'
'emerging_'
'heretic_'
'conj_'
'Mah'
'exploit_'
'meats_'
'dictionary_'
'414_'
'innocently_'
'hain_'
'arithmetic_'
'courier_'
'Brand_'
'sideways_'
'initiative_'
'Glen_'
'symptom_'
'queens_'
'joking_'
'shrug_'
'GOOD_'
'intrinsic_'
'hev_'
'familiarly_'
'Carew_'
'Cra'
'pamphlets_'
'golf_'
'embarrassing_'
'fictitious_'
'advertisements_'
'squad_'
'broadly_'
'Box_'
'servile_'
'imploring_'
'Psalms_'
'Ovid_'
'laughingly_'
'σ'
'tangible_'
'incidentally_'
'BOOKS_'
'stimulating_'
'choicest_'
'lamentable_'
'Canton_'
', `_'
'chasing_'
'Den'
'HER'
'census_'
'Yorke_'
'undo_'
'countenances_'
'Luis_'
'Memphis_'
'weakly_'
'Similar_'
'livid_'
'Toward_'
'=. _'
'oon_'
'Ps_'
'Thor_'
'ology_'
'nan_'
'gleams_'
'----”_'
'parcels_'
'ative_'
'1777_'
'Navarre_'
'unfrequently_'
'1916_'
'arrogance_'
'LAST_'
'ora_'
'offenders_'
'SOME_'
'Willoughby_'
'900_'
'matched_'
'Universal_'
'Hawthorne_'
'                                                   _'
'overseer_'
'devilish_'
'nde_'
'deputation_'
'sc_'
'crank_'
'['
'filth_'
'vacancy_'
'scorned_'
'levelled_'
'Atlanta_'
'stocking_'
'y'
'stealthily_'
'inclosed_'
'surpass_'
'     '
'Ursula_'
'noteworthy_'
'Pizarro_'
'prosper_'
'creates_'
'Fre'
'obnoxious_'
'χ'
'fastening_'
'Cornish_'
'Write_'
'vas_'
'flocked_'
'misled_'
'Domingo_'
'attitudes_'
'Cyprus_'
'Despite_'
'unwise_'
'passport_'
'flax_'
'belongings_'
'OUT_'
'modify_'
'saucepan_'
'dispensed_'
'Trees_'
'Dinner_'
'clap_'
'repeal_'
'aids_'
'Monmouth_'
'UP_'
'penal_'
'Daddy_'
'Brook_'
'ek_'
'Conway_'
'mire_'
'invest_'
'Donna_'
'thinkers_'
'141'
'varnish_'
'Notre_'
'py'
'poised_'
'foreground_'
'culprit_'
'!\u"_'
'drooped_'
'antagonism_'
'uninteresting_'
'deluge_'
'Baroness_'
'tourists_'
'Per_'
'atus_'
'slung_'
'levied_'
'DS_'
'evenly_'
'Record_'
'stowed_'
'enormously_'
'Desert_'
'paragraphs_'
'lier_'
'WILL_'
'139'
'|                                                              |_'
'mania_'
'cordiality_'
'«_'
'excellency_'
'Globe_'
'Pul'
'breathlessly_'
'          |_'
'conflagration_'
'ached_'
'shuddering_'
'bluish_'
'Them_'
'preposterous_'
'participation_'
'',_'
'crashing_'
'Buddhist_'
'hatched_'
'sich_'
'hooked_'
'ascribe_'
'Brooks_'
'hilt_'
'deacon_'
'conjectures_'
'warming_'
'mouthed_'
'extraordinarily_'
'embers_'
'thrive_'
'heave_'
'crescent_'
'falsely_'
'spells_'
'413_'
'hangings_'
'redoubled_'
'leant_'
'founding_'
'casually_'
'eu_'
'AM_'
'Secondly_'
'Register_'
'Method_'
'Seal_'
'. |_'
'obstinately_'
'repelled_'
'Santiago_'
'Beth_'
'stains_'
'Rodney_'
'Euphrates_'
'Alone_'
'warnings_'
'hazardous_'
'surgeons_'
'Mus_'
'regent_'
'dishonest_'
'xxiv_'
'Amid_'
'troubling_'
'peal_'
'overgrown_'
'detestable_'
'Margery_'
'Clemens_'
'fathom_'
'engineering_'
'Wash_'
'signification_'
'reinforced_'
'covert_'
'Manners_'
'reproof_'
'     | _'
'decomposition_'
'sanitary_'
'Grange_'
'soldiery_'
'network_'
'exchanging_'
'reel_'
'erg_'
'belle_'
'Iceland_'
'commentary_'
'attaining_'
'turmoil_'
'blinding_'
'tra_'
'boisterous_'
'provocation_'
'Impossible_'
'spoilt_'
'brushes_'
'Lakes_'
'tur'
'foolishly_'
'buggy_'
'Cave_'
'vocabulary_'
'ura'
'sci'
'excelled_'
'eo_'
'speck_'
'flats_'
'degrading_'
'Prison_'
'unfamiliar_'
'celebrity_'
'xxiii_'
'obstruction_'
'chatting_'
'ranging_'
'ices_'
'downs_'
'runner_'
'ral_'
'imagining_'
'warmest_'
'VOL_'
'interfering_'
'. "'_'
'protests_'
'robbing_'
'Rufus_'
'sullenly_'
'sensibly_'
'dean_'
'vassals_'
'Altogether_'
'423_'
'Pembroke_'
'prelate_'
'burgh_'
'Tour_'
'remonstrated_'
'noblemen_'
'abstain_'
'Died_'
'418_'
'tragedies_'
'Scandinavian_'
'ida_'
'Telegraph_'
'measurement_'
'shod_'
'occupant_'
'punctuation_'
'advertising_'
'TABLE_'
'pouch_'
'Darius_'
'Rhoda_'
'versions_'
'scanned_'
'arguing_'
'  |    _'
'steeple_'
'Widow_'
'cans_'
'Warner_'
'veness_'
'completing_'
'dictate_'
'delays_'
'annihilated_'
'\u,[_'
'usages_'
'ture_'
'portal_'
'awarded_'
'pi_'
'144'
'clapping_'
'confessor_'
'thinkin_'
'Grenville_'
'flexible_'
'inconsiderable_'
'ginger_'
'Brigadier_'
'Anti_'
'forge_'
'mournfully_'
'compiled_'
'quartz_'
'darkly_'
'amends_'
'Sub'
'Lucas_'
'grunted_'
'mans_'
'habitations_'
'frosty_'
'caressing_'
'Hay_'
'farmhouse_'
'Cork_'
'whirlwind_'
'themes_'
'Broad_'
'peel_'
'num_'
'cht_'
'bookseller_'
'tremor_'
'Bordeaux_'
'34'
'Chinaman_'
'corporations_'
'Concerning_'
'% _'
'venison_'
'survival_'
'NIGHT_'
'champions_'
'Des'
'tous_'
'Ephraim_'
'unlawful_'
'='
'biscuits_'
'421_'
'myriads_'
'soluble_'
'les'
'enclosing_'
'enabling_'
'Miguel_'
'"), _'
'spurred_'
'slack_'
'Baltic_'
'Fernando_'
'Eton_'
'lazily_'
'automatic_'
'Katie_'
'INTRODUCTION_'
'regal_'
'mee_'
'primeval_'
'fanaticism_'
'JA'
'Revolutionary_'
'clutch_'
'424_'
'sewed_'
'outright_'
'sites_'
'ponds_'
'versed_'
'fragile_'
'authoritative_'
'swarmed_'
'incumbent_'
'adviser_'
'Whitehall_'
'South'
'ration_'
'colt_'
'av_'
'cylinders_'
'chord_'
'picket_'
'uncouth_'
'aiming_'
'Whitney_'
'sustaining_'
'Labour_'
'. | _'
'hazel_'
'ascertaining_'
'coup_'
'Scipio_'
'telegraphed_'
'sg_'
'.—\u_'
'glaciers_'
'beamed_'
'Ashton_'
'testing_'
'switch_'
'cocks_'
'fervour_'
'Justin_'
'dessert_'
'ren_'
'dial_'
'contrasts_'
'40'
'sweets_'
'Koran_'
'; [_'
'yawning_'
'480_'
'rous_'
'sepulchre_'
'Demy_'
'Deputy_'
'ravines_'
'Morley_'
'notary_'
'123'
'blot_'
'vicissitudes_'
'forefinger_'
'rhymes_'
'Pietro_'
'outrageous_'
'Andrea_'
': "\u_'
'insisting_'
'Gates_'
'yu_'
'Doc_'
'Consider_'
'102'
'administrative_'
'Food_'
'unobserved_'
'stuffs_'
'merited_'
'dedication_'
'civic_'
'] (_'
'\u!"_'
'orphans_'
'indoors_'
'scraped_'
'belts_'
'artful_'
'cask_'
'I'
'thinner_'
'movable_'
'drenched_'
'beau_'
'rheumatism_'
'plume_'
'membership_'
'Guess_'
'generated_'
'aesthetic_'
'Dutchman_'
'restlessness_'
'privacy_'
'\u!_'
'seasoned_'
'gasping_'
'Giant_'
'groove_'
'WATER_'
'humbled_'
'sarcastic_'
'renounced_'
'’, _'
'promoting_'
'consciously_'
'amorous_'
'pricked_'
'129'
'tapping_'
'bouquet_'
'WORK_'
'hoof_'
'Ready_'
'shrieking_'
'metre_'
'dismissal_'
'Director_'
'symmetry_'
'fu_'
'academy_'
'consciences_'
'authorship_'
'ros_'
'cures_'
'undulating_'
'narratives_'
'exhaust_'
'TIME_'
'Marius_'
'tourist_'
'mantel_'
'Logan_'
'whit_'
'cigarettes_'
'threatens_'
'aghast_'
'thinker_'
'reverently_'
'gettin_'
'Pepys_'
'vn'
'lat_'
'Furthermore_'
'prolong_'
'Longfellow_'
'rye_'
'elongated_'
']'
'Magdalen_'
', ’_'
'subscribed_'
'prediction_'
'enthusiastically_'
'discrimination_'
'conflicts_'
'astronomical_'
'xes_'
'bunches_'
'tangle_'
'meanings_'
'in'
'continuity_'
'Tre'
'Members_'
'Fielding_'
'livres_'
'Fresh_'
'lodges_'
'Friar_'
'conventions_'
'constitutions_'
'Opposition_'
'preferring_'
'Dixon_'
'27'
'dness_'
'wearisome_'
'oi_'
'Parish_'
'revision_'
'matrimony_'
'Holt_'
'export_'
'contests_'
'Pepper_'
'relaxation_'
'paramount_'
'recalls_'
'MORE_'
'tawny_'
'capacities_'
'skulls_'
'Thinking_'
'Dream_'
'DO_'
'swiftness_'
'ruby_'
'impotent_'
'Cherokee_'
'kitten_'
'Wharton_'
'slit_'
'dangerously_'
'Roderick_'
'consigned_'
'listeners_'
'consort_'
'Hot_'
'exceeds_'
'committees_'
'brigades_'
'constituting_'
'pes_'
'shaved_'
'hemisphere_'
'fleeing_'
'bunk_'
'tenure_'
'signifying_'
'commons_'
'pi'
'1788_'
'ineffectual_'
'truest_'
'Thorpe_'
'Exhibition_'
'sleepless_'
'Zi'
'watchman_'
'migration_'
'magnetism_'
'23d_'
'33'
')'
'strangest_'
'remotest_'
'protesting_'
'electors_'
'Bond_'
'Assistant_'
'solutions_'
'organizations_'
'WORLD_'
'Nu'
'gens_'
'capturing_'
'screams_'
'Shorty_'
'loth_'
'asses_'
'depressing_'
'creditable_'
'oils_'
'pervaded_'
'chariots_'
'tumultuous_'
'spindle_'
'ankles_'
'Grammar_'
'10s_'
'pompous_'
'fables_'
'pop_'
'fleshy_'
'despotic_'
'Islam_'
'rudder_'
'abounding_'
'uneven_'
'u'
'Fairfax_'
'dt_'
'dra'
'130'
'zest_'
'maize_'
'chuckle_'
'Ruskin_'
'thanking_'
'helplessness_'
'disconcerted_'
'PRESIDENT_'
'precedence_'
'rudeness_'
'factions_'
'dor_'
'Dane_'
'thanksgiving_'
'ances_'
'STA'
'Ice_'
'heaviest_'
'taper_'
'summed_'
'questionable_'
'Folk_'
'laborer_'
'Tears_'
'seating_'
'uninterrupted_'
'exaltation_'
'WOMAN_'
'Saw_'
'awed_'
'ssa_'
'planters_'
'infidel_'
'adjourned_'
'tier_'
'negligence_'
'toiling_'
'finance_'
'discourses_'
'impious_'
'WORKS_'
'Crane_'
'103'
'Complete_'
'prettily_'
'irritable_'
'431_'
'nitrogen_'
'masked_'
'cette_'
'Rollo_'
'Calhoun_'
'quet_'
'460_'
'vigilant_'
'staggering_'
'    |   _'
'completeness_'
'stormed_'
'Rebellion_'
'sleigh_'
'crave_'
'\u.)_'
'Reports_'
'Ya'
'chronicle_'
'incomparable_'
'concerts_'
'432_'
'Ground_'
'Dakota_'
'CK_'
'priestly_'
'effecting_'
'portico_'
'mis'
'*'
'crystalline_'
'Galilee_'
'wedge_'
'inexorable_'
'follower_'
'Camden_'
'couples_'
'misgivings_'
'ENGLAND_'
'eux_'
'streaks_'
'partiality_'
'magnified_'
'Morse_'
'Especially_'
'). \u_'
'Chapman_'
'unaffected_'
'fireside_'
'cleverness_'
'northeast_'
'absorb_'
'wel_'
'hogs_'
'presiding_'
'nell_'
'induction_'
'429_'
'428_'
'wintry_'
'bugle_'
'transit_'
'echoing_'
'againe_'
'Rowe_'
'sec'
'everyday_'
'apprehensive_'
'Angels_'
'zation_'
'worsted_'
'forbids_'
'wayside_'
'Zo'
'mint_'
'dismayed_'
'sterile_'
'fourths_'
'dint_'
'caverns_'
'minerals_'
'427_'
'courtier_'
'ular_'
'inhuman_'
'discovers_'
'Io'
'1500_'
'flakes_'
'    |  _'
'419_'
'prejudiced_'
'Hast_'
'leigh_'
'evermore_'
'respiration_'
'weaken_'
'vibrations_'
'heedless_'
'Fitz'
'COR'
'pane_'
'ara'
'Te_'
'marrow_'
'.," _'
'terra_'
'unavoidable_'
'gan'
'bailiff_'
'\u,--_'
'refrained_'
'22d_'
'stanzas_'
'basement_'
'435_'
'1779_'
'edifices_'
'warp_'
'wilds_'
'ira_'
'29'
'hin_'
'era'
'narrated_'
'abolish_'
'distinguishes_'
'ala_'
'Theory_'
'Action_'
'swallows_'
'Garrick_'
'0w_'
'priori_'
'dictates_'
'urine_'
'envoys_'
'dilemma_'
'strolling_'
'crucifix_'
'chess_'
'Sou'
'Bacchus_'
'whimsical_'
'gaudy_'
'needy_'
'ditches_'
'bewildering_'
'suitor_'
'laurels_'
'banking_'
'Rhodes_'
'Over'
'Cher'
'waked_'
'invoked_'
'ί'
'glue_'
'durable_'
'bandage_'
'116'
'ern_'
'diagram_'
'clutching_'
'by'
'à'
'ond_'
'Practical_'
'Mo_'
'ATE_'
'rumor_'
'adversity_'
'Quoth_'
'aus_'
'Bethlehem_'
'Bah_'
'sharpened_'
'imprudent_'
'italics_'
'grumbling_'
'CES_'
'shrubbery_'
'}, _'
'ith_'
'oral_'
'dive_'
'Stephens_'
'140'
'immemorial_'
'Watt_'
'Southey_'
'tarry_'
'138'
'accepts_'
'Orient_'
'impaired_'
'bing_'
'Manual_'
'125'
'ē'
'Lance_'
'ague_'
'π'
'acknowledging_'
'SYN_'
'creeds_'
'trustees_'
'triumphal_'
'hurts_'
'sive_'
'waged_'
'demolished_'
'benediction_'
'Winthrop_'
'equator_'
'Thackeray_'
'saddled_'
'Lindsay_'
'Johannes_'
'Elinor_'
'109'
'); \u_'
'san_'
'runaway_'
'marries_'
'explorers_'
'Steam_'
'NER_'
'Laurence_'
'Bolton_'
'bubbles_'
'Experience_'
'stimulate_'
'cinnamon_'
'unacquainted_'
'fermentation_'
'plural_'
'ensign_'
'Sub_'
'entries_'
'foxes_'
'Prague_'
'                                                    _'
'Gone_'
'nge_'
'antiquities_'
'swells_'
'simile_'
'designate_'
'Copenhagen_'
'col_'
'calculating_'
'Antoine_'
'glazed_'
'dissipation_'
'ann_'
'Unto_'
'? "_'
'knob_'
'Watts_'
'Cole_'
'surprises_'
'mats_'
'Waters_'
'vineyard_'
'dishonour_'
'McClellan_'
'Lois_'
'appliances_'
'Leopold_'
'publicity_'
'oration_'
'bean_'
'Lucius_'
'chaff_'
'zero_'
'validity_'
'prosecuted_'
'abated_'
'Mis_'
'stroked_'
'pronunciation_'
'Sal'
'stratagem_'
'exacted_'
'7'
'dilated_'
'citizenship_'
'Sto'
'Generals_'
'Desmond_'
'loans_'
'parental_'
'pall_'
'Diet_'
'meanness_'
'foolishness_'
'Surgeon_'
'           |_'
'puzzling_'
'Treatise_'
'operative_'
'burdened_'
'Arizona_'
'offending_'
'attracting_'
'Ferguson_'
'Annals_'
'vb_'
'rigorous_'
'melodious_'
'senor_'
'lung_'
'Wolsey_'
'Theresa_'
'eagles_'
'KO'
'Dot_'
' -_'
'napkin_'
'individually_'
'retinue_'
'astern_'
'Mowbray_'
'Cox_'
'measurements_'
'Cadiz_'
'har_'
'108'
'debates_'
'Freeman_'
'appropriation_'
'aide_'
'Merchant_'
'weaknesses_'
'rogues_'
'prosecute_'
') '
'genteel_'
'Cowper_'
'attested_'
'acquiescence_'
'Imagine_'
'fumes_'
'Lynn_'
'indolence_'
'consecration_'
'Governments_'
'Countries_'
'maketh_'
'sunt_'
'ranked_'
'Yarmouth_'
'poker_'
'122'
'casket_'
'.           _'
'exiles_'
'decade_'
'lls_'
'auction_'
'112'
'! '
'perpetrated_'
'bicycle_'
'outrages_'
'Morrison_'
'impassioned_'
'coloured_'
'trigger_'
'planter_'
'Fray_'
'Dol'
'drainage_'
'Sainte_'
'Payne_'
'prelates_'
'Thor'
'Legion_'
'Clear_'
'chagrin_'
'TO'
'HAVE_'
'yd_'
'Alec_'
'veterans_'
'commodity_'
'Wilfrid_'
'outcry_'
'dairy_'
'Numbers_'
'wench_'
'ste_'
'privations_'
'doses_'
'climates_'
'.        _'
'precept_'
'clash_'
'. . ._'
'designation_'
'substitution_'
'senators_'
'Terence_'
'sprinkle_'
'lacks_'
'arrogant_'
'Pr_'
'Creed_'
'reserves_'
'refugees_'
'agreeing_'
'mushrooms_'
'fraternity_'
'mattered_'
'Adventures_'
'workings_'
'41'
'sew_'
'incur_'
'Carroll_'
'422_'
'expand_'
'runners_'
'piers_'
'incompatible_'
'boasting_'
' . _'
'usly_'
'cant_'
'Col'
'requests_'
'illumined_'
'") _'
'risked_'
'downe_'
'breathes_'
'chancel_'
'sagacious_'
'26'
'upheld_'
'qua_'
'incidental_'
'ablest_'
'Neil_'
'Del'
'CAPTAIN_'
'liability_'
'circling_'
'Duchesse_'
'tin'
'spied_'
'petticoat_'
'Ger_'
'persistence_'
'discredit_'
'awaits_'
'mortified_'
'brutality_'
'auspices_'
'Con_'
'Ken'
'cloaks_'
'sh'
'darts_'
'pew_'
'cruisers_'
'Jennie_'
'Ile_'
'31'
'scratching_'
'draped_'
'privy_'
'slang_'
'grocer_'
'Plants_'
'?' '_'
'floats_'
'dilapidated_'
'bonny_'
'\u,” _'
'.._'
'smelt_'
'overpowering_'
'vp_'
'cellars_'
'Whitman_'
'Carleton_'
'Meredith_'
'CITY_'
'PEOPLE_'
'bushel_'
'Had'
'strawberries_'
'psalm_'
'my'
'1784_'
'delightfully_'
'37'
'regulating_'
'filial_'
'Antoinette_'
'sluggish_'
'Jamie_'
'sickening_'
'pitiless_'
'Finn_'
'weighs_'
'denoted_'
'saves_'
'oot_'
'creations_'
'Fleming_'
'Bois_'
'predominant_'
'Wade_'
'39'
'thankfulness_'
'mending_'
'irritating_'
'Mat_'
'Boulogne_'
'spontaneously_'
'shortened_'
'respite_'
'enclose_'
'Pour_'
'Mag_'
'-'
'unhappiness_'
'elaborately_'
'Siegfried_'
'.| _'
'Tiberius_'
'Hero_'
'spotless_'
'identification_'
'01_'
'un'
'ων_'
'MO'
'Fool_'
'ible_'
'gallon_'
'bubble_'
'Ze'
'crab_'
'hourly_'
'copying_'
'tablespoonfuls_'
'ruffled_'
'toned_'
'ripple_'
'knoweth_'
'ander_'
'Redeemer_'
'withhold_'
'organize_'
'choke_'
'mortally_'
'revolting_'
'deepening_'
'WHO_'
'visionary_'
'skeletons_'
'screws_'
'relinquish_'
'assaults_'
'Everyone_'
'tropics_'
'super_'
'mythical_'
'coroner_'
'Melville_'
'lang_'
'104'
'beastly_'
'rou'
'heim_'
'Stars_'
'6'
'enquiry_'
'Wy'
'Saracens_'
'Hi_'
'convulsive_'
'betook_'
'Hang_'
'Glad_'
'coverts_'
'Kil'
'obtains_'
'ardently_'
'instructor_'
'ignoring_'
'hindrance_'
'Van'
'Race_'
'priceless_'
'Buonaparte_'
'unhealthy_'
'concept_'
'Wouldn_'
'vibration_'
'Thine_'
'Principal_'
'Episcopal_'
'Correspondence_'
'throb_'
'firmament_'
'¼_'
'promenade_'
'strictest_'
'derives_'
'zel_'
'lull_'
'Odin_'
'.  '
'repugnance_'
'pours_'
'mocked_'
'Snake_'
'mole_'
'Yale_'
'quo_'
'forgetful_'
'tribal_'
'kindest_'
'Writing_'
'Horses_'
'tailed_'
'DEN_'
'windward_'
'mani'
'click_'
'drunkard_'
'salaries_'
'ete_'
'Pagan_'
'artery_'
'.          _'
'deceiving_'
'Shell_'
'Adi'
'thoroughfare_'
'nearing_'
'drilled_'
'Pride_'
'sidewalk_'
'flowered_'
'HEBREW_'
'slander_'
'invading_'
'astounding_'
'ster'
'exclaims_'
'cke_'
'06'
'worrying_'
'voiced_'
'viceroy_'
'garlands_'
'Anjou_'
'107'
'black'
'parks_'
'relentless_'
'surpassing_'
'Madeline_'
'Genius_'
'loathsome_'
'faithless_'
'Baden_'
'KS_'
'>'
'workshop_'
'sate_'
'peaches_'
'moat_'
'howled_'
'Socialism_'
'memorandum_'
'Norah_'
'lumps_'
'alle_'
'ITY_'
'reposed_'
'\u. \u_'
'114'
'Puritans_'
'stro'
'repressed_'
'mercies_'
'`, _'
'\u"_'
'reformers_'
'conceited_'
'Davies_'
'beetle_'
'strangled_'
'performer_'
'jovial_'
'attends_'
'smash_'
'ack_'
'unpopular_'
'potassium_'
'groping_'
'Brethren_'
'ulus_'
'burghers_'
'immersed_'
'wicket_'
'carriers_'
'Spirits_'
'dramas_'
'lli_'
'Las_'
'spices_'
'cooler_'
'projection_'
'formality_'
'Tuileries_'
'repeats_'
'hinges_'
'Stratford_'
'Il'
'lyric_'
'426_'
'1774_'
'dung_'
'dating_'
'Nathaniel_'
'whipping_'
'JOSEPH_'
'ensue_'
'Hail_'
'vindictive_'
'detachments_'
'Lutheran_'
'Delhi_'
'quarts_'
'concentrate_'
'bankers_'
'XXXI_'
'qualification_'
'Tyre_'
'8'
'Observations_'
'eligible_'
'accomplishing_'
'Isa_'
'04_'
'rig_'
'imitating_'
'enhanced_'
'Devon_'
'436_'
'inanimate_'
'oddly_'
'Eighth_'
'ACT_'
'sby_'
'marvels_'
'disadvantages_'
'alludes_'
'Chelsea_'
'119'
'ruffians_'
'". _'
'th'
'godly_'
'doves_'
'morocco_'
'Romeo_'
'Darling_'
'arteries_'
'Linda_'
'Key_'
'Border_'
'í'
'Water'
'Stra'
'Rowland_'
'peremptory_'
'curiosities_'
'casks_'
'SO_'
'BOYS_'
'wireless_'
'architects_'
'memoirs_'
'Conqueror_'
'flap_'
'biographer_'
'towel_'
'NORTH_'
'reiterated_'
'claw_'
'Hindoo_'
'vestibule_'
'polis_'
'prophesied_'
'Gustavus_'
'scold_'
'perforated_'
'determines_'
'clo'
'Levi_'
'Goths_'
'inverted_'
'employs_'
'haunting_'
'favourably_'
'scolding_'
'Happily_'
'445_'
'rousing_'
'ly'
'Harbor_'
'Thousand_'
'Pisa_'
'volatile_'
'Exchequer_'
'victuals_'
'purchaser_'
'lure_'
'hoe_'
'kingly_'
'433_'
'meditating_'
'sentries_'
'jes_'
'chastity_'
'experts_'
'SCHOOL_'
'classics_'
'joyously_'
'dawning_'
'Sammy_'
'consuming_'
'conspicuously_'
'Sutherland_'
'120'
'—'
'Hearing_'
'Carrie_'
'smells_'
'ruthless_'
'addicted_'
'Republicans_'
'ignoble_'
'treatises_'
'buff_'
'}'
'trapper_'
'tabernacle_'
'deposition_'
').  _'
'refresh_'
'Muse_'
'excel_'
'Cunningham_'
'caterpillar_'
'Humph_'
'Arden_'
'partisan_'
'Des_'
'Boil_'
'sucking_'
'roofed_'
'confiscated_'
'intervened_'
'Creation_'
'sowing_'
'lounging_'
'Feast_'
'Dur'
'disciplined_'
'Rex_'
'):_'
'tattered_'
'bog_'
'Customs_'
'ry'
'robed_'
'blasphemy_'
'Spartan_'
'Quarterly_'
'tidy_'
'commonest_'
'Poly'
'compulsory_'
'Parma_'
'Lent_'
'437_'
'05'
'implacable_'
'tresses_'
'_'
'Car_'
'porters_'
'disapproval_'
'Cavendish_'
'forked_'
'reservoir_'
'aggravated_'
'parable_'
'MOTHER_'
'pent_'
'Cottage_'
'tenement_'
'astounded_'
'Branch_'
'ι'
'Savage_'
'angelic_'
'Fro'
'=:_'
'nom_'
'loosed_'
'fastidious_'
'flitting_'
'Nights_'
'ês_'
'wrinkles_'
'deux_'
'cra'
'Jesse_'
'editorial_'
'loaves_'
'drought_'
'daytime_'
'ders_'
'Vere_'
'widened_'
'milder_'
'dominated_'
'beheaded_'
'Chairman_'
'simultaneous_'
'Zu'
'quarrelling_'
'peat_'
'ker'
'regeneration_'
'Theodora_'
'gust_'
'Vaughan_'
'Together_'
'admittance_'
'lute_'
'calico_'
'solicited_'
'Sword_'
'Magnus_'
'concurrence_'
'accompanies_'
'Bridget_'
'alis_'
'ABLE_'
'discharging_'
'Studies_'
'124'
'unawares_'
'suspiciously_'
'stipulated_'
'enlist_'
'metres_'
'115'
'overflow_'
'Bride_'
'por_'
'mair_'
'Cara'
'outlaw_'
'Inside_'
'Archi'
'archives_'
'postal_'
'mansions_'
'auspicious_'
'persecutions_'
'crags_'
'ue'
'eld_'
'abashed_'
'sympathize_'
'flitted_'
'penniless_'
'mails_'
'Species_'
'tottering_'
'softening_'
'settles_'
'Cedar_'
'maze_'
'gne_'
'Bir'
'dejected_'
'debris_'
'Ur'
'shoved_'
'longitudinal_'
'dangling_'
'Copper_'
'wrestling_'
'Shrewsbury_'
'hissed_'
'Fau'
'o'
'apathy_'
'Universe_'
'42'
'underwent_'
'deportment_'
'Teresa_'
'Hughes_'
'odi'
'Godwin_'
'friendships_'
'pitying_'
'Can'
'lavished_'
'glacial_'
'Tyler_'
'44'
'rocked_'
'Husband_'
'!—_'
'Bench_'
'stifling_'
'pur_'
'Sinclair_'
'awkwardly_'
'momentarily_'
'hammock_'
'freeze_'
'fraught_'
'PER_'
'vin_'
'claret_'
'winked_'
'Nottingham_'
'vex_'
'rebuked_'
'Sitting_'
'larva_'
'shu'
'inter'
'outwardly_'
'nger_'
'Buddhism_'
'121'
'housekeeping_'
'Pont_'
'\u!" _'
'Game_'
'δ'
'nic_'
'checking_'
'VES_'
'dots_'
'batter_'
'fulfilling_'
'dens_'
'agonies_'
'adduced_'
'croft_'
'7s_'
'cts_'
'Epistles_'
'impure_'
'markings_'
'inus_'
'Wo'
'Fri'
'perfumed_'
'Aren_'
'Simple_'
'run'
'Mul'
'Cornwallis_'
'grandest_'
'Kor'
'tallow_'
'employments_'
'distasteful_'
'diabolical_'
'candour_'
'tolerate_'
'suns_'
'AFTER_'
'iest_'
'PHI_'
'Claudius_'
'unfavorable_'
'fying_'
'truck_'
'screwed_'
'denomination_'
'cider_'
'Clayton_'
'upside_'
'pumps_'
'roving_'
'courtly_'
'sue_'
'inns_'
'compartments_'
'villas_'
'glimmering_'
'enlargement_'
'Juno_'
'paralyzed_'
'perverse_'
'explosive_'
'apo'
''," _'
'schoolboy_'
'Normans_'
'Arabella_'
'vat_'
'cruelties_'
'Gardiner_'
'nimble_'
'remonstrances_'
'friendliness_'
'anointed_'
'Scar'
'shocks_'
'matrimonial_'
'equity_'
'Dove_'
'topped_'
'disorderly_'
'shrouded_'
'cowards_'
'sanctified_'
'Olivia_'
'precipices_'
'Carpenter_'
'Thoughts_'
'implicitly_'
'ers'
'au'
'loomed_'
'43'
'overturned_'
'font_'
'staple_'
'formations_'
'Parsons_'
'Lau'
'441_'
'ον_'
'tradesmen_'
'labyrinth_'
'hazy_'
'Balzac_'
'ora'
'collective_'
'assures_'
'\u = _'
'Lis'
'Journey_'
'Id_'
'sells_'
'Yankees_'
'Tra'
'impertinence_'
'kindling_'
'Canadians_'
'an'
'LIST_'
'Revelation_'
'unused_'
'frae_'
'debtor_'
'legion_'
'BATTLE_'
'confiding_'
'444_'
'unprepared_'
'creaking_'
'02_'
'category_'
'knotted_'
'Hands_'
'lurid_'
'homme_'
'crusade_'
'Hancock_'
'steamed_'
'sooth_'
'roller_'
'ducats_'
'Pilate_'
'MOR'
'ics_'
'Hart'
'narrowed_'
'lesse_'
'directs_'
'bethought_'
'PG_'
'flanked_'
'exported_'
'Ezekiel_'
'seizure_'
'dus_'
'Wen'
'SHA'
'Cicely_'
'distraction_'
'Flying_'
'puffing_'
'cracking_'
'Fra_'
'mechanic_'
'ien_'
'healthful_'
'Porte_'
'turban_'
'thatched_'
'bile_'
'fostered_'
'shoemaker_'
'hallowed_'
'dal_'
'cas_'
'bleed_'
'Kathleen_'
'Cur'
'tearful_'
'ree_'
'complacency_'
'beauteous_'
'Pharisees_'
'Period_'
'bombs_'
'bodied_'
'133'
'Mata'
'readings_'
'Dom_'
'naturalists_'
'counsellor_'
'Syracuse_'
'warranted_'
'uphold_'
'treading_'
'educate_'
'],_'
'eries_'
'ano'
'Lexington_'
'gambler_'
'Hammond_'
'haughtily_'
'438_'
'tunes_'
'Code_'
'ced_'
'Wilkinson_'
'Less_'
'Jan'
'funnel_'
'scroll_'
'forecastle_'
'ada'
'undergoing_'
'trio_'
'ratified_'
'quid_'
'age'
'ō'
'unbelief_'
'tr_'
'truer_'
'unparalleled_'
'constraint_'
'Bul'
'subsist_'
'scramble_'
'ower_'
'motley_'
'igh_'
'battlements_'
'OW_'
'Discovery_'
'Corner_'
'126'
'Stage_'
'Seward_'
'Ky'
'Humboldt_'
'Warden_'
'Supposing_'
'contracting_'
'UNDER_'
'fainter_'
'kan_'
'drifts_'
'FAMILY_'
'110'
'izing_'
'xxv_'
'dubious_'
'tens_'
'nocturnal_'
'470_'
'Red'
'tyrannical_'
'apostolic_'
'adjust_'
'unreal_'
'merged_'
'coating_'
'Tudor_'
'Coal_'
'combe_'
'ners_'
'\u [_'
'XXXII_'
'Ser'
'imputed_'
'highways_'
'wastes_'
'geometry_'
'Generally_'
'vouchsafed_'
'elli_'
'Duty_'
'epitaph_'
'constructing_'
'Bertrand_'
'443_'
'slumbers_'
'safest_'
'episcopal_'
'surmise_'
'sod_'
'alternating_'
'Rebel_'
'Pyrenees_'
'~}, {~_'
'incredulous_'
'giver_'
'nie_'
'mace_'
'Bush_'
'.\u ~_'
'" (\u_'
'sanguinary_'
'bolder_'
'Kind_'
'Gro'
'smilingly_'
'pauses_'
'laced_'
'Collier_'
'seconded_'
'TED_'
'Wolfe_'
'defile_'
'LING_'
'rey_'
'mariners_'
'Huguenots_'
'DA_'
'cam_'
'Rising_'
'135'
'haw_'
'mustache_'
'fl_'
'crackling_'
'Ghent_'
'begotten_'
'Rama_'
'spires_'
'Front_'
'profited_'
'Drink_'
'sodium_'
'rollers_'
'kindle_'
' *_'
'gig_'
'draughts_'
'expectant_'
'Hassan_'
'trump_'
'Interior_'
'suspend_'
'Sol_'
'hapless_'
'evade_'
'droll_'
'alluding_'
'Everett_'
'Herrick_'
'packages_'
'Hutchinson_'
'ively_'
'raining_'
'flowery_'
'cramped_'
'consuls_'
'prodigal_'
'metaphysics_'
'Leyden_'
'shark_'
'animosity_'
'Eri'
'auxiliary_'
'APPENDIX_'
'rius_'
'dipping_'
' /_'
'journalist_'
'compulsion_'
'aspire_'
'trusts_'
'.) \u_'
'develops_'
'Plant_'
'roadway_'
'kite_'
'inquest_'
'endeavors_'
'clambered_'
'Ulster_'
'eum_'
'complications_'
'Beaufort_'
'Op_'
'wi'
'submissive_'
'rearing_'
'onia_'
'dogmas_'
'Stro'
'Conservative_'
'143'
'Cossacks_'
'ttes_'
'pers_'
'Translation_'
'ator_'
'Artagnan_'
'Madeira_'
'sabre_'
'aiding_'
'Hey_'
'corridors_'
'geology_'
'434_'
'infirmities_'
'Digby_'
'Arundel_'
'signing_'
'int_'
'Want_'
'reformer_'
'trails_'
'. #_'
'rigidly_'
'are'
'vestige_'
'Wer'
'Seems_'
'Morocco_'
'Marston_'
'447_'
'yere_'
'visitation_'
'infested_'
'Louisville_'
'455_'
'swarms_'
'balm_'
'retribution_'
'enrolled_'
'Amazon_'
'"     _'
'memoir_'
'Stirling_'
'Serve_'
'Flint_'
'.’”_'
'mistaking_'
'wort_'
'Cuthbert_'
'supra_'
'stic_'
'unfold_'
'lamentations_'
'enquire_'
'detectives_'
'soles_'
'Terror_'
'tunic_'
'sally_'
'niche_'
'ceous_'
'juvenile_'
'Cle'
'128'
'pending_'
'smo'
'domination_'
'infidels_'
'stack_'
'expediency_'
'Wren_'
'teller_'
'contradicted_'
'gent_'
'451_'
'villains_'
'lighthouse_'
'neglecting_'
'gers_'
'slabs_'
'edit_'
'ó'
'widespread_'
'griefs_'
'fellers_'
'molasses_'
'sville_'
'elasticity_'
'1917_'
'immigrants_'
'439_'
'accomplice_'
'och_'
'Qui'
'132'
'Potter_'
'   |    _'
'tel_'
'mouthful_'
'contagious_'
'Tacitus_'
'abstracted_'
'." \u_'
'Sara'
'?\u _'
'spoons_'
'performers_'
'discordant_'
'chauffeur_'
'Phyllis_'
'ona_'
'graver_'
'Elliot_'
'Sense_'
'battlefield_'
'IP'
'suburb_'
'ike_'
'cartridge_'
'surrounds_'
'halo_'
'Paula_'
'rampart_'
'LEA'
'Hogarth_'
'observable_'
'dun_'
'dae_'
'CA'
'Memory_'
'449_'
'empirical_'
'receptacle_'
'apologies_'
'soberly_'
'conjectured_'
'inlaid_'
'hu_'
'levity_'
'Fame_'
'leaved_'
'Considering_'
'THIRD_'
'turret_'
'sine_'
'consummation_'
'.\u '
'unwillingly_'
'Tor'
'Conde_'
'Merton_'
'Boyd_'
'distinctness_'
'intercepted_'
'picks_'
'Mons_'
'Ale'
'38'
'Mt_'
'Faust_'
'resides_'
'captors_'
'Ring'
'Angus_'
',   _'
'gills_'
'exhibitions_'
'Libraries_'
'thet_'
'gunners_'
'elated_'
'crumpled_'
'dames_'
'Custom_'
'stumps_'
'glo'
'trophies_'
'seizes_'
'likelihood_'
'introduces_'
'MEL'
'\u--\u_'
'tigers_'
'tapering_'
'prettier_'
'ostrich_'
'lengthy_'
'peacock_'
'continents_'
'unmolested_'
'piteously_'
'ined_'
'Xenophon_'
'hypocrite_'
'sharper_'
'disperse_'
'accosted_'
'STO'
'Lines_'
'ος_'
'snapping_'
'revered_'
'denounce_'
'attainments_'
'safeguard_'
'progressed_'
'nightingale_'
'ction_'
'Peak_'
'Autumn_'
'Feeling_'
'wer_'
'coiled_'
'satirical_'
'ourt_'
'1770_'
'Hartford_'
'CHO'
'to'
'tuft_'
'feud_'
'136'
'himselfe_'
'vacuum_'
'recurring_'
'luckily_'
'clown_'
'miser_'
'Abi'
'bis_'
'beck_'
'Agriculture_'
'infirmity_'
'Lima_'
'inlet_'
'Canning_'
'Caius_'
'Sciences_'
'Hicks_'
'Courage_'
'humoured_'
'shipwreck_'
'marred_'
'executing_'
'Poles_'
'Josh_'
'undertone_'
'soils_'
'blotted_'
'streaked_'
'Bey_'
'parentage_'
'aw'
'Strabo_'
'cru'
'commendation_'
'irrigation_'
'Seas_'
'Connor_'
'traversing_'
'stalked_'
'                                                     _'
'emblems_'
'wily_'
'sec_'
'nel_'
'Whit'
'Relation_'
'Circle_'
'ripened_'
'numbering_'
'Waverley_'
'partook_'
'cha_'
'Tribune_'
'Doctrine_'
'observant_'
'ER'
'lye_'
'.         _'
'incarnation_'
'Deer_'
'Barnabas_'
'cultivating_'
'vagabond_'
'tos_'
'Philistines_'
'sauntered_'
';'
'shyness_'
'peg_'
'showy_'
'Sophie_'
'tyme_'
'heredity_'
'counterpart_'
'bustling_'
'Somers_'
'water'
'Shar'
'Labor_'
'physics_'
'upturned_'
'hadst_'
'sparing_'
'prevalence_'
'outcast_'
'bias_'
'barns_'
'affixed_'
'praising_'
'trotting_'
'navigable_'
'cio_'
'446_'
'Resolved_'
'indomitable_'
'furnaces_'
'Yu'
'enlighten_'
'Raoul_'
'loins_'
'favorably_'
'christened_'
'35'
'mia_'
'elo'
'contradictions_'
'adultery_'
'Wilkes_'
'impregnable_'
'accusing_'
'orators_'
'cloudless_'
'avenged_'
'Wonder_'
'Murder_'
'Dro'
'113'
'wei'
'merest_'
'lending_'
'Wi'
'participate_'
'1786_'
'untimely_'
'professing_'
'ku'
'Sahib_'
'hemp_'
'franchise_'
'bacteria_'
'Eaton_'
'stab_'
'cult_'
'bail_'
'way'
'graduate_'
'postpone_'
'reviewed_'
'decease_'
'complimentary_'
'Plains_'
'Cre'
'supplemented_'
'packs_'
'ari'
'465_'
'tius_'
'Abu_'
'trampling_'
'Osiris_'
'protective_'
'chisel_'
'cti'
'Apart_'
'processions_'
'eys_'
'tanks_'
'finances_'
'lusty_'
'imaginations_'
'Mall_'
'Gol'
'By'
'wonted_'
'builds_'
'yeast_'
'forgery_'
'Milk_'
'Cro'
'Beecher_'
'448_'
'ploughed_'
'dancer_'
'cataract_'
'?"--_'
'marines_'
'deformed_'
'aback_'
'117'
'wavered_'
'plied_'
'neatness_'
'medals_'
'hel'
'Pre'
'veal_'
'shadowed_'
'ple_'
'forgave_'
'attaching_'
'Dra'
'counterfeit_'
'securities_'
'palate_'
'dowry_'
'compete_'
'Senators_'
'Good'
'spends_'
'fervor_'
'137'
'violate_'
'um'
'Berwick_'
'145'
' ['
'ff'
'birthplace_'
'Johnnie_'
'solidity_'
'JO'
'outlying_'
'barrister_'
'Guido_'
'BLACK_'
'FRENCH_'
'.            _'
'spectrum_'
'interviews_'
'Semitic_'
'Thousands_'
'Sampson_'
'Gould_'
'oriental_'
'lyre_'
'id'
'deceitful_'
'Forrest_'
'Pure_'
'Names_'
'CON'
'impetus_'
'Tho_'
'writhing_'
'conductors_'
'Theology_'
'Cooke_'
'stark_'
'festive_'
'\u.”_'
'reefs_'
'circulating_'
'aboriginal_'
'Undoubtedly_'
'Jem_'
'restriction_'
'jagged_'
'forsooth_'
'Notice_'
'Heat_'
'Anyway_'
'wrongly_'
'abhorrence_'
'Ch'
'â'
'uni'
'itt_'
'elms_'
'Cock_'
'spinal_'
'meditations_'
'incapacity_'
'condescension_'
'ω_'
'garrisons_'
'chords_'
'abounded_'
'Tr_'
'competitors_'
'brooks_'
'Richards_'
'steeped_'
'levels_'
'ingham_'
'defenceless_'
'Sla'
'Beat_'
'rejoin_'
'clients_'
'caricature_'
'Marine_'
'Dom'
'stamens_'
'reptile_'
'buffaloes_'
'is'
'collars_'
'sprinkling_'
'nar'
'Noel_'
'suddenness_'
'residue_'
'prospective_'
'nk_'
'fined_'
'illustrative_'
'Randall_'
'453_'
'quench_'
'impostor_'
'unions_'
'mattress_'
'adjutant_'
'Todd_'
'rambling_'
'fen_'
'Guise_'
'Covent_'
'scolded_'
'ntes_'
'cruiser_'
'whichever_'
'warden_'
'err_'
'frolic_'
'finery_'
'Vol'
'Ver_'
'concave_'
'tightened_'
'Ber'
'perverted_'
'nian_'
'NO'
'exports_'
'Verona_'
'Pac'
'442_'
', ... _'
'tripped_'
'seller_'
'Denver_'
'Northwest_'
'adapt_'
'raced_'
'stupor_'
'restlessly_'
'incorrect_'
'decently_'
'shroud_'
'Isis_'
'subscribe_'
'poisons_'
'hoary_'
'yawned_'
'marbles_'
'cones_'
'Elizabethan_'
'lah_'
'incensed_'
'cy'
'consistently_'
'compels_'
'recite_'
'infidelity_'
'Dinah_'
'tak_'
'onely_'
'nna_'
'Everard_'
'"'
'windy_'
'vapours_'
'Dry_'
'uttermost_'
'memorials_'
'Physical_'
'Looks_'
'wizard_'
'retainers_'
'ots_'
'ere'
'enjoyments_'
'Servant_'
'Dare_'
'rick_'
'pickets_'
'blackish_'
'program_'
'sleeper_'
'nominally_'
'agility_'
'...'
'printers_'
'Hon'
'ize_'
'idi'
'TRA'
'Bach_'
';—_'
'Spa'
'surging_'
'inquiringly_'
'ancestry_'
'07'
'lounge_'
'sonnet_'
'HALL_'
'Cob'
'splashed_'
'shrines_'
'ht'
'begs_'
'anchorage_'
'Warsaw_'
'pitiable_'
'multiplication_'
'pretends_'
'goe_'
'Prov_'
'Bour'
'Thorne_'
'riveted_'
'viewing_'
'uncanny_'
'toad_'
'bushy_'
'Pleasure_'
'Jock_'
'employees_'
'benefited_'
'**_'
'perplexing_'
'ouse_'
'zzi_'
'146'
'ventral_'
'paralysis_'
'onal_'
'Schiller_'
'molten_'
'inaugurated_'
'Spectator_'
'_'
'gutter_'
'characterised_'
'blending_'
'prosaic_'
'evaporation_'
'Ful'
'horizontally_'
'spice_'
'pondering_'
'Remarks_'
'Blind_'
'452_'
'tufts_'
'arid_'
'unearthly_'
'Hil'
'salted_'
'mae'
'gon_'
'affront_'
'Kla'
'Ely_'
'deduction_'
'ES'
'Ville'
'politic_'
'Corporation_'
'irresistibly_'
'Holiness_'
'dont_'
'alleys_'
'ality_'
'Divinity_'
'ul'
'cheerily_'
'nsi'
'Kas'
'Fra'
'broadside_'
'Dolores_'
'nervousness_'
'Gil'
'Dominion_'
'perfumes_'
'credulous_'
'complains_'
'stunted_'
'purport_'
'profuse_'
'penetration_'
'erecting_'
'Claus_'
'thighs_'
'superhuman_'
'454_'
'swarthy_'
'Aid_'
'indicative_'
'displaced_'
'saucy_'
'broker_'
'lilac_'
'hurl_'
'corresponded_'
'unbearable_'
'ocks_'
'despondency_'
'Mormons_'
'Galileo_'
'sultry_'
'fixedly_'
'dogged_'
'buttered_'
'astonish_'
'acquiesced_'
'Colour_'
'#, \u_'
'reeled_'
'Visit_'
'distinguishable_'
'Usually_'
'DER_'
'Chateau_'
'youngsters_'
'guessing_'
'tumbler_'
'sonorous_'
'bedding_'
'Erskine_'
'devoutly_'
'alo'
'scorched_'
'discomfiture_'
'Ware_'
'notified_'
'artifice_'
'et'
'Wheeler_'
'turnips_'
'ole'
'atone_'
') (_'
'turpentine_'
'Georges_'
'bales_'
'voters_'
'tenderest_'
'bes_'
'Merlin_'
'Ge'
'URE_'
'squarely_'
'asse'
'beetles_'
'ala'
'Cases_'
'zenith_'
'paints_'
'imbued_'
'pyramids_'
'infinity_'
'έ'
'translator_'
'hauling_'
'guaranteed_'
'boudoir_'
'rium_'
'extinguish_'
'destroyer_'
'auto_'
'Par'
'Local_'
'Found_'
'bitterest_'
'straps_'
'ns'
'interspersed_'
'Andre_'
'ient_'
'antelope_'
'Lucia_'
'457_'
'rumors_'
'Josephus_'
'burly_'
'bourgeois_'
'].'
'handsomest_'
'1785_'
'tant_'
'scientist_'
'glade_'
'Simeon_'
'Hay'
'deluded_'
'chronicler_'
'skillful_'
'surly_'
'casualties_'
'Lazarus_'
'stockade_'
'? '_'
'.'[_'
'externally_'
'surgery_'
'Fifteen_'
'ABOUT_'
'gayety_'
'demeanor_'
'taint_'
'lightened_'
'diving_'
'confederacy_'
'beverage_'
'\u., _'
'Kun'
'stealthy_'
'Mueller_'
'budding_'
'secession_'
'sb_'
'liberation_'
'GRA'
',’_'
'Rod'
'Mis'
'Bil'
'vermin_'
'decorum_'
'darkening_'
'adults_'
'Engineers_'
'Allow_'
'            |_'
'proverbial_'
'matured_'
'apes_'
'Faithful_'
'privation_'
'moored_'
'Hours_'
'pictorial_'
'WARD_'
'kirk_'
'Saunders_'
'Gaelic_'
'., &_'
'workhouse_'
'minstrel_'
'Ditto_'
'enlightenment_'
'Led'
'mum_'
'humblest_'
'crests_'
'Camilla_'
'sling_'
'ple'
'Mem_'
'Bare'
'encounters_'
'cherries_'
'Lou'
'Deane_'
'Alliance_'
'       '
'550_'
'terminating_'
'conscientiously_'
'Fire'
'459_'
'childlike_'
'Success_'
'Mystery_'
'Dorothea_'
'Babylonia_'
'contested_'
'Muses_'
'shoals_'
'Poole_'
'caustic_'
'annihilation_'
'Lombard_'
'Alfonso_'
'immigration_'
'mantelpiece_'
'declarations_'
'Sybil_'
'Pleasant_'
'nen_'
'southeast_'
'Marianne_'
'Couldn_'
'moistened_'
'cuckoo_'
'Ayres_'
'robin_'
'panorama_'
'imports_'
'gra'
'quae_'
'condescended_'
'adherence_'
'shameless_'
'perforce_'
'Intelligence_'
'stiffened_'
'mosquitoes_'
'marshy_'
'dr_'
'105'
'yolks_'
'receding_'
'braced_'
'03_'
'ss'
'potential_'
'Electric_'
'Provincial_'
'usness_'
'hey_'
'111'
'          '
'locate_'
'kinsmen_'
'PAUL_'
'Havana_'
'tape_'
'refreshments_'
'venomous_'
'boulder_'
'alum_'
'Mail_'
'dri'
'SONG_'
'475_'
'ré'
'nymph_'
'basal_'
'\u, '
'recruit_'
'clamor_'
'Forster_'
'disappointments_'
'SOUTH_'
'Monte'
'ö'
'inconsistency_'
'avait_'
'voluminous_'
'gie_'
'106'
'jackets_'
'aromatic_'
'Andes_'
'tonic_'
'etic_'
'unites_'
'thorax_'
'derivation_'
'Provence_'
'keenest_'
'bats_'
'zi'
'convents_'
'aspiration_'
'Hin'
')]_'
'spectre_'
'prolific_'
'ARTHUR_'
'presumptuous_'
'Vols_'
'Peruvian_'
'Mister_'
'reproachfully_'
'gentlemanly_'
'Nebraska_'
'Cod_'
'15'
'Sheep_'
'Pra'
'cables_'
'waiters_'
'Evolution_'
'Bel_'
'inferiority_'
'gy'
'unprofitable_'
'smite_'
'billiard_'
'Titian_'
'Thing_'
'Gul'
'Frost_'
'A'
'armchair_'
'Ju'
'Ashley_'
'smoky_'
'binds_'
'exigencies_'
'irregularly_'
'dei'
'critically_'
'quenched_'
':" _'
'regimental_'
'Rules_'
'Arrived_'
'stan_'
'severest_'
'warehouse_'
'dewy_'
'westerly_'
'Nashville_'
'yo'
'thriving_'
'enrich_'
'chin'
'Clyde_'
'post'
'nou'
'delirious_'
'Commercial_'
'Commandant_'
'—”_'
'DAR'
'rupees_'
'logically_'
'jests_'
'chanting_'
'buoyant_'
'Patsy_'
'Shi'
'restraining_'
'excites_'
'animate_'
'Hayes_'
'S2_'
'winner_'
'Sid'
'Male_'
'Charter_'
'Sanders_'
'Oe'
'precede_'
'Tucker_'
'Jarvis_'
'vos_'
'Memorial_'
'unprotected_'
'capped_'
'Montagu_'
'unutterable_'
'contagion_'
'brushing_'
'bee'
'Pet_'
'Agamemnon_'
'passers_'
'prehistoric_'
'mosaic_'
'il'
'\u?_'
'Dis'
'wo_'
'wakes_'
'lli'
'Biblical_'
'υ'
'VOLUME_'
'yi'
'dis'
'compassionate_'
'STATES_'
'ys'
'ego_'
'Rad'
'suck_'
'fickle_'
'cafe_'
'exemplary_'
'volition_'
'sulky_'
'isles_'
'Liszt_'
'! "_'
'Motor_'
'splitting_'
'pounding_'
'payable_'
'marvelled_'
'lius_'
'borrowing_'
'backing_'
'clocks_'
'Cast_'
'Ana'
'ǣ'
'squirrels_'
'reddened_'
'illegitimate_'
'carcass_'
'Trojan_'
'cm_'
'BER'
'rending_'
'Chem_'
'ovi'
'mangled_'
'Voice_'
'GAR'
'wailed_'
'lled_'
'legendary_'
'dé'
'Similarly_'
'Inde'
'Chance_'
'BAN'
'Benton_'
'herring_'
'efficacious_'
'Hilary_'
'ile'
'Rain_'
'disposing_'
'collectors_'
'aunts_'
'Orlando_'
'09'
'creator_'
'cite_'
'bla'
'Twelfth_'
'reverent_'
'nutmeg_'
'Con'
'oun_'
'disengaged_'
'cultured_'
'=: _'
'red'
'mak_'
'Catholicism_'
'inflexible_'
'Kar'
'Bos'
'dozens_'
'ct_'
'PAR'
'Ali'
'.\u  _'
'gu'
'elevate_'
'residences_'
'vi'
'altering_'
'Wind'
'thickened_'
'novice_'
'beards_'
'36'
'      '
'effigy_'
'boatswain_'
'shading_'
'melodies_'
'magnanimity_'
'vanishing_'
'bracelets_'
'Petrarch_'
'Midsummer_'
'sundown_'
'submitting_'
'she'
'licked_'
'inestimable_'
'connects_'
'masks_'
'00'
'tortoise_'
'slap_'
'pleasanter_'
'latitudes_'
'Cove_'
'sun'
'listless_'
'proven_'
'persuading_'
'Aix_'
'swi'
'interchange_'
'Dance_'
'ARI'
'resolves_'
'Jennings_'
'cur_'
'KE'
'ladders_'
'ans'
'adequately_'
'HEAD_'
'Enemy_'
'jist_'
'disarmed_'
'mercenary_'
'dandy_'
'bide_'
'widening_'
'fire'
'effaced_'
'revolve_'
'olo_'
'babes_'
'unison_'
'GI'
'FO'
'unceasing_'
'fabrics_'
'Rolls_'
'sorrowfully_'
'eu'
'ascetic_'
'depraved_'
'boring_'
'lordly_'
'FRIEND_'
'witnessing_'
'Hook_'
'Cover_'
'Bog'
'hoop_'
'Prudence_'
'deafening_'
'Reid_'
'perishing_'
'fencing_'
'felled_'
'Roses_'
', "'_'
'WEST_'
'Middlesex_'
'Ad_'
'1760_'
'preoccupied_'
'Scotchman_'
'Gor'
'Dau'
'supplement_'
'boatman_'
'intensified_'
'Pastor_'
'sessions_'
'Barlow_'
'unsteady_'
'fines_'
'decaying_'
'courted_'
'venturing_'
'plug_'
'sparrows_'
'slanting_'
'Heinrich_'
'06_'
'strewed_'
'll'
'dramatist_'
'Par_'
'rippling_'
'alluring_'
'PRINCE_'
'Ganges_'
'shave_'
'cunningly_'
'bluntly_'
'affirms_'
'fitful_'
'TU'
'unrest_'
'intoxicating_'
'immunity_'
'TA_'
'Dia'
'Aryan_'
'kan'
'oned_'
'leathern_'
'456_'
'under'
'swallowing_'
'Leonora_'
'jesting_'
'embodiment_'
'Signed_'
'sburg_'
'Auntie_'
'β'
'mariner_'
'branched_'
'Teacher_'
'hordes_'
'hawks_'
'QUI'
'MAC'
'Beaver_'
'rap_'
'Confederation_'
'spar_'
'lawns_'
'Que_'
'ύ'
'Maude_'
'pulls_'
'Convent_'
'pro'
'earthquakes_'
'dialects_'
'centred_'
'Swedes_'
'BO'
'undeniable_'
'nicht_'
'immorality_'
'gou'
'urst_'
'hitting_'
'SAMUEL_'
'458_'
'Selina_'
'justifiable_'
'exactness_'
'maddened_'
'intercession_'
'Week_'
'Hartley_'
'levy_'
'yr_'
'wes_'
'fanatical_'
'Tavern_'
'Ottawa_'
'490_'
'squaw_'
'penitence_'
'ades_'
'Brien_'
'zen_'
'bottoms_'
'476_'
'dan'
'converting_'
'Aragon_'
'unavailing_'
'noiseless_'
'geo'
'der'
'operas_'
'distributing_'
'bankrupt_'
'attaches_'
'Tro'
'spherical_'
'ugliness_'
'panther_'
'The'
'dived_'
'boatmen_'
'Sketches_'
'ornamentation_'
'ar'
'samples_'
'bewitched_'
'XXXIII_'
'prick_'
'Boone_'
'shouldst_'
'ethereal_'
'designing_'
'sto'
'rated_'
'pendant_'
'ME'
'pur'
'bulb_'
'~ _'
'favourites_'
'Hazel_'
'symmetrical_'
'Porto_'
'slackened_'
'pre'
'inducement_'
'pears_'
'Shore_'
'reflects_'
'splashing_'
'confessions_'
'NI'
'TAN'
'Praise_'
'nder_'
'je'
'Fitzgerald_'
'ANI'
'Brit_'
'temps_'
'calmer_'
'airship_'
'ale'
'sustenance_'
'ada_'
'Quincy_'
'soaring_'
'footmen_'
'Wit_'
'undecided_'
'Ramsay_'
'Hi'
'Els'
'pedigree_'
'Beach_'
'tu'
'blissful_'
'ya'
'ripening_'
'margins_'
'Tir'
'DING_'
[...]
